#version: 0.2
t h
i n
a n
y o
o u
yo u</w>
e r</w>
i s</w>
a t</w>
a r
t o</w>
o n
e r
th e</w>
in g</w>
n o
r e
an d</w>
i t</w>
v e</w>
a l
l i
e n
h a
h e</w>
i t
o n</w>
e s</w>
e n</w>
e d</w>
s t</w>
t i
th at</w>
o r
m e</w>
a n</w>
e l
no t</w>
o r</w>
l o
w h
i n</w>
l y</w>
d o</w>
l d</w>
k e</w>
b e
a t
s t
o f</w>
s e</w>
ar e</w>
r i
th e
w a
. .</w>
h i
o m
ou ld</w>
b u
b e</w>
h o
ha ve</w>
a c
. ..</w>
i l
n '
n' t</w>
yo u
r o
it h</w>
li ke</w>
ou t</w>
e t</w>
w ith</w>
bu t</w>
i r
f or</w>
o o
e a
e v
l e</w>
s i
a b
m a
s e
i f</w>
u st</w>
er e</w>
on e</w>
h er</w>
d i
you r</w>
s a
no w</w>
' s</w>
e s
hi m</w>
th in
i c
m y</w>
u r
u n
c a
l a
the y</w>
d o
m o
g h
s he</w>
t r
s h
j ust</w>
s o</w>
il l</w>
T h
wa s</w>
k now</w>
th er</w>
w ould</w>
a s
el l</w>
d s</w>
al l</w>
al ly</w>
c an</w>
g u
an t</w>
w ill</w>
wh at</w>
y s</w>
thin k</w>
o u</w>
Y ou</w>
lo ve</w>
u se</w>
g et</w>
c h
t o
a m</w>
c h</w>
I t</w>
th ing</w>
gh t</w>
c o
n e
f ri
I f</w>
v i
oo d</w>
a s</w>
t s</w>
fri en
b o
t t
ab out</w>
c e</w>
p e
th is</w>
om e
on g</w>
d e
m e
ti on</w>
ca use</w>
ev er</w>
p er
or e</w>
q u
l e
s o
o p
th en</w>
a y</w>
a g
a l</w>
g o
s ome
s u
g ood</w>
f e
in d</w>
g ir
T he</w>
m u
k ing</w>
sh ould</w>
w ant</w>
n o</w>
w or
g o</w>
p p
l l</w>
the m</w>
r a
v er
ou n
ho w</w>
th ere</w>
lo o
g s</w>
en t</w>
c k</w>
be cause</w>
u p</w>
p o
W h
i s
f a
t a
d e</w>
f u
c on
T H
re ally</w>
a d
wa y</w>
e ar
t h</w>
e y</w>
ur e</w>
` `</w>
ti me</w>
wh o</w>
h is</w>
p ro
l ea
i d</w>
c om
an y</w>
m ore</w>
frien d</w>
at e</w>
' '</w>
e x
m an</w>
g h</w>
o ther</w>
wh en</w>
s el
r y</w>
a d</w>
k s</w>
do es</w>
so me</w>
ro m</w>
di d</w>
sa y</w>
it e</w>
ti on
p re
on t</w>
t er</w>
w e
t er
ha s</w>
b y</w>
f rom</w>
l u
mo vi
to o</w>
w om
s on</w>
f or
i r</w>
f ind</w>
m ar
j o
g i
s p
op le</w>
gu y</w>
it s</w>
f e</w>
ac k</w>
er s</w>
D o</w>
as k</w>
m i
m p
es s</w>
g e
ver y</w>
s ong</w>
ic e</w>
ou gh</w>
r e</w>
sel f</w>
u t</w>
u s
H e</w>
pe ople</w>
d ont</w>
t ell</w>
l s</w>
w n</w>
g re
s w
on ly</w>
ma ke</w>
be st</w>
c i
se e</w>
gir l</w>
' m</w>
s ti
tr y</w>
w i
e l</w>
an y
in e</w>
t al
w e</w>
n a
qu es
ir st</w>
el y</w>
s ure</w>
oun d</w>
w ell</w>
wa ys</w>
ev er
ch e
f f
g e</w>
movi e</w>
p la
an sw
be li
ne ed</w>
m en</w>
c ould</w>
mu ch</w>
y ing</w>
e ve</w>
en d</w>
co m</w>
Th at</w>
ri ght</w>
u m
p e</w>
. com</w>
p ar
f f</w>
n e</w>
d er</w>
frien ds</w>
t ed</w>
Y O
some one</w>
d ay</w>
ab le</w>
A N
si c</w>
I N
k es</w>
k ed</w>
o w</w>
v er</w>
w at
wh y</w>
ev en</w>
d y</w>
n ever</w>
s c
the ir</w>
f irst</w>
per son</w>
beli eve</w>
A n
tt er</w>
ha d</w>
s on
d er
e p
ha pp
b i
go t</w>
a m
ea r</w>
ag e</w>
s in
pro b
sti ll</w>
al ways</w>
M y</w>
t e
ho o
some thing</w>
t e</w>
ou s</w>
loo k</w>
s hi
th an</w>
gu ys</w>
c u
N o</w>
ri ed</w>
w o</w>
li fe</w>
go ing</w>
wom en</w>
mu sic</w>
h ear
o l
f i
y es</w>
b ack</w>
m at
se x</w>
en jo
ques tion</w>
Th ey</w>
gre at</w>
re e</w>
in ter
e p</w>
you r
thin gs</w>
ar d</w>
answ er</w>
mo st</w>
be tter</w>
w w
r u
en t
S he</w>
gi ve</w>
h el
c t</w>
a f
w ere</w>
k e
o ld</w>
fe el</w>
re la
v es</w>
d ing</w>
c a</w>
fu l</w>
b er</w>
d u
Wh at</w>
st u
th ough</w>
it y</w>
n y</w>
gir ls</w>
v ing</w>
ti ve</w>
' re</w>
ou r</w>
ac e</w>
me an</w>
an ce</w>
wh ere</w>
a r</w>
co me</w>
g er</w>
B e
Y es</w>
s ed</w>
y be</w>
p l
B ut</w>
your self</w>
s how</w>
c ou
shi p</w>
ac t
yo ne</w>
YO U</w>
b ad</w>
o t</w>
tr ac
e st
l et</w>
rela tion
be en</w>
m on
lea se</w>
bo th</w>
E R</w>
w r
n t</w>
sa id</w>
l ed</w>
p en
e i
lo t</w>
p s</w>
n i
ma y</w>
tr u
c hi
e m
w an
at trac
t y</w>
mar ried</w>
Th ere</w>
m es</w>
re a
ta ke</w>
s s</w>
tion s</w>
at ing</w>
O N
f in
na me</w>
s ing</w>
d re
se x
o ver</w>
di ff
ea d</w>
a in</w>
c k
al so</w>
st ar
m any</w>
c ar
sa me</w>
wor k</w>
wom an</w>
E A
. .
il e</w>
i m</w>
b le</w>
n ice</w>
enjo y</w>
ear s</w>
i l</w>
loo king</w>
t wo</w>
v or
TH E</w>
li st
c al
C h
u r</w>
o ff</w>
f un
O U
H A
u s</w>
ne w</w>
ab ly</w>
any thing</w>
An d</w>
at ed</w>
' ll</w>
l ing</w>
b and</w>
p ic
re ad
relation ship</w>
t ing</w>
fu n</w>
I S</w>
e st</w>
p a
s it
w s</w>
ir e</w>
f ore</w>
m al
en ce</w>
tal k</w>
wat ch</w>
n a</w>
T O</w>
c are</w>
mi ght</w>
a u
at s</w>
L O
re c
ti mes</w>
E R
hear d</w>
ac h</w>
y ears</w>
b l
J ust</w>
be ing</w>
ou ght</w>
V E</w>
bi g</w>
AN D</w>
com p
s ho
is h</w>
s ite</w>
l ess</w>
tt le</w>
l ong</w>
an s</w>
me m
o me</w>
el se</w>
v ed</w>
prob ably</w>
p h
ho pe</w>
si on</w>
bo y
N O
read y</w>
ar ound</w>
u l
a pp
w ever</w>
I T</w>
IN G</w>
hel p</w>
de pen
fe el
ma ybe</w>
a tion</w>
k i
fun ny</w>
s or
h ere</w>
ac t</w>
li ttle</w>
re d</w>
tt y</w>
son gs</w>
i m
be fore</w>
Wh y</w>
t el
g a
un der
wr ong</w>
af ter</w>
a w
d ate</w>
h an
fa vor
t y
L i
ho o</w>
I n</w>
M a
o se</w>
w n
attrac tive</w>
L L</w>
si de</w>
Th is</w>
g r
c er
o wn</w>
s pe
i on</w>
you n
a hoo</w>
u ally</w>
ag ain</w>
do wn</w>
er i
cou r
in gs</w>
v o
e m</w>
bo dy</w>
sa ys</w>
inter est
diff er
b ro
com m
L o
h ard</w>
boy friend</w>
A R
' ve</w>
pla y</w>
st and</w>
p ri
z e</w>
s m
ever y
depen ds</w>
wa it</w>
se ar
oo l</w>
mem ber</w>
ic h</w>
f t</w>
li kes</w>
pre tty</w>
k no
ke ep</w>
A l
lo w</w>
s si
po in
an other</w>
l ar
st r
b r
d es
do ing</w>
movi es</w>
wh ile</w>
m in
Wh en</w>
tt ing</w>
t ur
H ow</w>
con t
wh ich</w>
mat ter</w>
in to</w>
on ce</w>
di s
S T
o b
w .
lu ck</w>
wan ts</w>
b rea
O O
prob le
ea h</w>
happ y</w>
g le</w>
th ought</w>
we b
L I
s oun
is s</w>
d ed</w>
gir l
favor ite</w>
oo k</w>
gu ess</w>
ww w.
p i
do wn
re as
E S</w>
S T</w>
list en</w>
A T</w>
l y
th ats</w>
loo ks</w>
M o
cal led</w>
c or
st er</w>
st o
u al</w>
ei ther</w>
c lo
an yone</w>
c re
se en</w>
no thing</w>
S o</w>
W ell</w>
e t
mo ve</w>
mal e</w>
re al</w>
t en
wi fe</w>
cour se</w>
O M
s h</w>
I s</w>
i mp
m y
B o
n er</w>
h ur
down lo
m m
an g
al i
al ready</w>
s es</w>
wat ch
c lu
ab y</w>
th ers</w>
in k</w>
E N
s y</w>
youn g</w>
m ust</w>
O N</w>
i ght</w>
h ead</w>
I T
lo l</w>
sear ch</w>
ha ving</w>
c all</w>
k ind</w>
ti l</w>
su ch</w>
la st</w>
wi th
d a
mon ey</w>
sor ry</w>
th er
p lease</w>
W e</w>
ho t</w>
S t
d a</w>
c ra
si mp
p r
J o
en ts</w>
P lease</w>
bo y</w>
under stand</w>
ma il</w>
h on
G ood</w>
re member</w>
ge ther</w>
Y our</w>
O R
an c
f er</w>
ma de</w>
tru e</w>
E N</w>
y ed</w>
us ed</w>
y ear</w>
l es</w>
m s</w>
soun ds</w>
H o
ri c
H a
web site</w>
H E</w>
p ut</w>
per son
' d</w>
a way</w>
ma kes</w>
ever y</w>
to gether</w>
w on
th ose</w>
m ind</w>
p id</w>
differ ent</w>
ty pe</w>
c oun
y et</w>
star t</w>
lea ve</w>
j e
girl friend</w>
m il
re ad</w>
interest ed</w>
sex ual</w>
on es</w>
D O</w>
t en</w>
ex c
G o</w>
t ly</w>
un til</w>
E D</w>
o m</w>
li ve</w>
happ en
at er</w>
ti c</w>
m er
an i
ge tting</w>
Be cause</w>
mo ther</w>
TH AT</w>
h e
in for
c ho
a p
fa mi
I N</w>
per i
sto p</w>
co l
z y</w>
stu ff</w>
f li
d r
with out</w>
s eri
stu pid</w>
ar y</w>
k in
an ge</w>
on s</w>
i ve</w>
h u
po ssi
p u
ta in</w>
en ough</w>
f ound</w>
N ot</w>
reas on</w>
g ay</w>
as king</w>
ag ree</w>
A N</w>
m a</w>
tr ust</w>
e ach</w>
tr ying</w>
tal king</w>
H I
lo ves</w>
g ra
con si
n ing</w>
l ine</w>
ques tions</w>
y a</w>
ea l</w>
ho wever</w>
R e
i de
b el
em s</w>
hoo l</w>
we e
proble m</w>
me ans</w>
lo w
ou s
f ree</w>
c ool</w>
w ish</w>
ho me</w>
w al
ou se</w>
re s</w>
O R</w>
ha te</w>
h us
R o
act ually</w>
st a
I n
or t
b aby</w>
pl ace</w>
bu y</w>
G o
A re</w>
c ks</w>
T ry</w>
f il
O h</w>
s en
i g
L Y</w>
le ft</w>
B E
y eah</w>
it i
ide a</w>
W A
NO T</w>
si g
downlo ad</w>
v en</w>
YO U
Y ahoo</w>
t w
c ha
t re
sc hool</w>
every thing</w>
d nt</w>
M E</w>
op in
lea st</w>
m ent</w>
ever yone</w>
ki ds</w>
d d
ly ric
de fin
c hoo
al ity</w>
c ant</w>
sa w</w>
or y</w>
n um
le ar
hear t</w>
chi l
sin ce</w>
hur t</w>
g en
o k</w>
hus band</w>
y a
t ure</w>
my self</w>
ou r
ul t</w>
K E</w>
R I
thin king</w>
ne x
S ome</w>
ha t
d es</w>
Lo ve</w>
to ld</w>
TH E
wor ry</w>
o thers</w>
nex t</w>
g oo
pre fer</w>
ne e
ous ly</w>
li e</w>
L D</w>
Ha ve</w>
wor th</w>
ge ts</w>
as s</w>
T I
vi de
R E
0 0
ha ps</w>
che ck</w>
as ked</w>
u p
n et</w>
ha ir</w>
b a
P er
fami ly</w>
c la
Ma ybe</w>
b it</w>
su pp
de ci
poin ts</w>
l on
ic k</w>
B U
Th en</w>
S E</w>
el l
d one</w>
ni ght</w>
m ed</w>
d ating</w>
un k</w>
n ed</w>
O F</w>
ac c
opin ion</w>
la r</w>
ac k
c tion</w>
a v
M A
ar i
D o
choo se</w>
r is</w>
feel ings</w>
ta in
U n
the se</w>
se ems</w>
pre s
al s</w>
ad v
g on</w>
w ar
k iss</w>
W H
r om
an d
* *
tur n</w>
en g
st s</w>
T a
un less</w>
st ay</w>
spe ci
ro ck</w>
ca l</w>
I F</w>
1 0</w>
R EA
Ho wever</w>
ex peri
h ear</w>
for get</w>
f o
brea k</w>
ph one</w>
p ur
ma tion</w>
in st
be au
i d
simp ly</w>
al bu
mar ri
dre n</w>
sa ying</w>
in g
B e</w>
ent ly</w>
1 9
s ound</w>
fli r
pic k</w>
- -</w>
no r
w an</w>
b or
YOU R</w>
wor ld</w>
k in</w>
H O
an k</w>
su g
ro w</w>
num ber</w>
T ell</w>
wan ted</w>
k ay</w>
A L
s k</w>
for t
t a</w>
possi ble</w>
fe w</w>
S E
li ked</w>
it ing</w>
ic an</w>
ir d</w>
da ys</w>
sit u
re n
ch ar
s ur
c ur
w ent</w>
u g
com es</w>
N e
w ire</w>
m om
che at</w>
P o
chil dren</w>
be come</w>
sp on
c r
th r
sex y</w>
S e
in v
G re
si mil
A ll</w>
d um
lo ved</w>
infor mation</w>
R O
me et</w>
h or
E T</w>
we en</w>
re ct</w>
o ff
par t</w>
bo ys</w>
qu ite</w>
e yes</w>
O ne</w>
la u
ge st</w>
d ding</w>
al ot</w>
E V
happ en</w>
G ir
any more</w>
h ell</w>
go es</w>
cu te</w>
ti c
marri age</w>
f r
c li
ch ance</w>
c t
sp ea
m is
h ar
ol der</w>
r ing</w>
at ely</w>
li k
s le
simil ar</w>
th ree</w>
N ow</w>
ti ful</w>
T o</w>
y ahoo</w>
watch ing</w>
p er</w>
ep t</w>
b an
P ar
L u
A s</w>
m es
in s</w>
b oo
Wh o</w>
P e
B E</w>
won der
us h</w>
mo m</w>
o h</w>
e a</w>
fe male</w>
h es</w>
cu z</w>
oo oo
m ine</w>
f at</w>
situ ation</w>
che ating</w>
ar s</w>
w in</w>
p or
AR E</w>
me wire</w>
HA VE</w>
se con
mar ry</w>
et c</w>
at es</w>
O n
e mail</w>
ca me</w>
ti v
at h</w>
wor ks</w>
h a</w>
j u
imp ort
N '
G et</w>
ou l
hat ever</w>
d ri
be t
par t
g ing</w>
y e</w>
W I
s qu
s ha
in di
bl on
u su
m an
u e</w>
N' T</w>
f er
k y</w>
ea sy</w>
M ar
LO VE</w>
t it
diff ic
lyric s</w>
lik ely</w>
defin it
s et</w>
cra zy</w>
wh o
chi ld</w>
ap pe
G u
F or</w>
cor rect</w>
OU T</w>
M en</w>
re spon
albu m</w>
es ome</w>
do es
app ro
BU T</w>
o f
beau tiful</w>
se em</w>
A mer
f an</w>
some times</w>
bet ween</w>
se e
ra p</w>
bel ow</w>
b ed</w>
fa r</w>
N O</w>
l ater</w>
ou t
A C
A sk</w>
nee ds</w>
g ar
w er</w>
p le</w>
T V</w>
S ome
ne y</w>
d ou
per for
or s</w>
h er
fa ther</w>
re st</w>
OU LD</w>
O r</w>
ya hoo
B u
t t</w>
D id</w>
e -
kno ws</w>
import ant</w>
d ance</w>
ar es</w>
f re
ch ange</w>
ON E</w>
si ster</w>
b ook</w>
te mp
ev i
F irst</w>
t u
f ace</w>
Mo st</w>
thr ough</w>
m et</w>
h ouse</w>
an g</w>
t ri
cer tain</w>
g in</w>
secon d</w>
di e</w>
pla ying</w>
vide o</w>
o ver
el e
does nt</w>
any way</w>
y er</w>
t on</w>
so on</w>
kin da</w>
ter s</w>
al one</w>
L E</w>
or t</w>
o c
IT H</w>
st e</w>
s end</w>
com ing</w>
Go d</w>
poin t</w>
o kay</w>
NO W</w>
adv ice</w>
diffic ult</w>
a in
hon est</w>
HI M</w>
in f
f ic
aw esome</w>
s it</w>
h ea
D e
to t
wor ds</w>
list en
f ine</w>
definit ely</w>
te en</w>
sin gle</w>
l er</w>
W ITH</w>
v ir
us ing</w>
t end</w>
h ey</w>
clo se</w>
Per haps</w>
m en
lo ts</w>
f all</w>
vi e
ep i
yahoo .com</w>
st ra
ro om</w>
comp le
ck y</w>
ma z
k en</w>
0 0</w>
inter net</w>
b s</w>
sp end</w>
l ly</w>
en c
I R
t ried</w>
sh es</w>
ma l</w>
l in
di o</w>
ci ally</w>
di es</w>
con cer
ag o</w>
E E
to p</w>
at ten
U ST</w>
C D</w>
s y
p op
L A
F OR</w>
lear n</w>
h um
h h
ma g
it ed</w>
e x</w>
am es</w>
tru ly</w>
of ten</w>
f ol
st ed</w>
li sh</w>
i se</w>
C H
car e
W HA
D ay</w>
A B
w ing</w>
s er
es pe
aw are</w>
answ ers</w>
hi gh</w>
T T
ma king</w>
han g</w>
S O</w>
consi der</w>
L et</w>
gu it
d eal</w>
bl ack</w>
w hatever</w>
le g
epi so
vo ice</w>
li st</w>
l ate</w>
c ent</w>
e at</w>
sin ger</w>
e d
C ar
A LL</w>
th s</w>
wor d</w>
t ely</w>
ug ly</w>
a il
5 0</w>
sh y</w>
is su
k er</w>
experi ence</w>
in a</w>
S OM
B ro
d ent</w>
E n
jo b</w>
H ey</w>
H ER</w>
e se</w>
e g
dou b
E ven</w>
bro ther</w>
ur ing</w>
s we
hi m
es s
cont in
ra id</w>
wh e
sug gest</w>
sc re
o s</w>
h om
frien d
an e</w>
on line</w>
A t</w>
evi sion</w>
A Y</w>
usu ally</w>
ar ti
LI KE</w>
squ ares</w>
k new</w>
fu ll</w>
S p
lar ge</w>
espe cially</w>
car es</w>
qu i
feel s</w>
rom an
TH IN
re ci
an t
ra ther</w>
h al
dre ss</w>
re spe
po sit
en ti
S I
O n</w>
M Y</w>
Jo h
C o
p ay</w>
h and</w>
af raid</w>
k il
D a
mar t</w>
gr ou
f act</w>
WHA T</w>
k is
fe ct</w>
D I
vi ously</w>
happen s</w>
p ed</w>
fil m</w>
ca se</w>
N o
n s</w>
lon ger</w>
Amer ican</w>
p lea
happen ed</w>
O f</w>
tel evision</w>
t es</w>
speci al</w>
o o</w>
lo se</w>
re ali
seri ous</w>
s ea
watch ed</w>
U R
s .com</w>
e f
D O
part ner</w>
h it</w>
pla yed</w>
m or
b ra
wal k</w>
st ing</w>
feel ing</w>
THE Y</w>
par ents</w>
ban ds</w>
a maz
G oo
ic k
ER E</w>
un der</w>
sho ws</w>
su c
Y eah</w>
rec ei
attrac ted</w>
W om
thin ks</w>
b ar
at temp
wee k</w>
sa d</w>
coun try</w>
ca r</w>
Y o</w>
st an
i th
fi ve</w>
des er
d ge</w>
c at
al most</w>
si ve</w>
d ad</w>
A f
' S</w>
wi se</w>
ru n</w>
who le</w>
L e
w ard</w>
l a</w>
i st</w>
st re
g n
du de</w>
di sc
st ory</w>
li g
E LL</w>
Do es</w>
Li ke</w>
Ch ris</w>
t on
re nt</w>
doub t</w>
G H
el ly</w>
b er
au gh
Al so</w>
w in
re comm
mu si
d in
S h
K e
pic ture</w>
lu s</w>
en ds</w>
E ver
C on
f rea
blon de</w>
w ear</w>
jo ke</w>
an ts</w>
M e</w>
won der</w>
ou th</w>
ch ing</w>
fo re
C A
w il
ti ce</w>
S u
ti n</w>
su b
in ce</w>
cho ice</w>
bu r
whe ther</w>
atten tion</w>
an ks</w>
a po
wa iting</w>
n at
ha ts</w>
S imp
C AN</w>
we ird</w>
spea k</w>
sm all</w>
s er</w>
op e</w>
ac tiv
u lar</w>
mat ure</w>
ma d</w>
gh ts</w>
f oo
e mo
am s</w>
K NOW</w>
Ch ri
i c</w>
char ac
G ET</w>
roman tic</w>
T R
M O
sp ace</w>
ea si
answ er
L a
J UST</w>
k id</w>
do l
Ta ke</w>
B l
w ont</w>
pa st</w>
c e
b ir
Gre en</w>
ri ble</w>
n ess</w>
grou p</w>
a mp
consi der
si ze</w>
or der</w>
le y</w>
i es</w>
ga me</w>
con ver
TH ING</w>
Af ter</w>
tot ally</w>
par ti
lo st</w>
lau gh</w>
d ra
al l
y le</w>
iti es</w>
inst ead</w>
di dnt</w>
Pe ople</w>
il s</w>
comp u
be at</w>
ac h
F a
C K</w>
mi sta
des ire</w>
C an</w>
star ted</w>
dum b</w>
a z
ga ve</w>
g ro
WI LL</w>
S HE</w>
2 00
lo gi
b all</w>
li ty</w>
vi du
stra ight</w>
m ing</w>
anc es</w>
B O
sin gs</w>
cou ple</w>
N E
mon ths</w>
k ey</w>
interest ing</w>
ex pe
mal es</w>
li mewire</w>
hel ps</w>
pre gn
or d</w>
in tel
cont ro
indi vidu
W ould</w>
TH IS</w>
T S</w>
G O
recomm end</w>
1 5</w>
m ate</w>
pla in</w>
or ry</w>
u m</w>
pur cha
fu lly</w>
H H
st er
sle ep</w>
f el
ar ed</w>
ad m
W a
v e
sel ves</w>
o sexual</w>
listen ing</w>
c ted</w>
M e
see ing</w>
r .</w>
me ant</w>
m er</w>
H ere</w>
fort un
a h</w>
S H
wh ite</w>
sig n</w>
tel ling</w>
sit es</w>
la dy</w>
k ill</w>
ar t</w>
D S</w>
in clu
g one</w>
compu ter</w>
app reci
sen se</w>
proble ms</w>
i mag
guit ar</w>
es si
sh ed</w>
S orry</w>
y l
we dding</w>
s po
per fect</w>
n er
min u
lu e</w>
it t
i ous</w>
b ly</w>
ac tion</w>
C H</w>
AN T</w>
u ck</w>
pop ular</w>
mom ent</w>
f low
cont act</w>
THIN K</w>
C E</w>
y o</w>
l an
je al
al low</w>
ra dio</w>
do l</w>
H il
wr ite</w>
swe et</w>
A r
han d
person ality</w>
goo gle</w>
bi g
act ly</w>
P ro
I ts</w>
B r
sa ge</w>
oul dnt</w>
nor mal</w>
l es
e e
ac es</w>
the m
sur pri
sh are</w>
i gh
g in
con fi
bro ke</w>
U N
L E
I m</w>
EV ER</w>
z z
dre am</w>
che ated</w>
H ar
ta kes</w>
intel lig
fr ont</w>
flir t</w>
du c
al ong</w>
Par is</w>
m iss</w>
do g</w>
so lu
d augh
contin ue</w>
LO L</w>
Gir ls</w>
Al though</w>
1 8</w>
y si
tain ly</w>
respe ct</w>
op en</w>
inv ol
in c
fa st</w>
g ent
en ding</w>
c ess
an no
L ook</w>
str ong</w>
li n</w>
ha ha
n d</w>
il ly</w>
hal f</w>
fort able</w>
an a</w>
G ive</w>
B i
wor st</w>
ex actly</w>
ent y</w>
be t</w>
H is</w>
D V
2 0</w>
st ri
fa ith
episo de</w>
ca u
ti ll</w>
m m</w>
d ro
at t
D i
care ful</w>
av ail
Ma ke</w>
y -
leg al</w>
d uring</w>
com fortable</w>
war ds</w>
st yle</w>
s k
b as
E l
pregn ant</w>
el s</w>
cli ck</w>
c ro
GH T</w>
s mart</w>
ma ma</w>
en ter
clu b</w>
S a
Q u
G O</w>
th y</w>
loo ked</w>
it es</w>
di sa
d ly</w>
avail able</w>
amaz ing</w>
re fer
p es</w>
apo logi
A S
R a
j er
al e</w>
G OO
E x
Be st</w>
t ou
simp le</w>
di vor
dd le</w>
ch at</w>
b ri
TH ER</w>
y ea</w>
ph ysi
g ames</w>
On ly</w>
wonder ful</w>
st ore</w>
ma s</w>
li c
faith ful</w>
f our</w>
Ne w</w>
g la
c ele
Wom en</w>
T r
D u
to day</w>
c oo
ON G</w>
O K</w>
M u
on d</w>
fe c
seri es</w>
fi ght</w>
deci de</w>
G e
E L
ea s</w>
d ead</w>
act or</w>
t al</w>
sor t</w>
si ck</w>
sea son</w>
est ly</w>
bor ing</w>
youn ger</w>
ir ty</w>
fu ture</w>
W hi
vi ous</w>
cla s
wil ling</w>
supp ose</w>
or ig
hom osexual</w>
M on
me di
ho ld</w>
daugh ter</w>
d un
at u
T o
Gir l</w>
pr om
n ic
enjo yed</w>
sm ile</w>
arti st</w>
W ow</w>
ON T</w>
w /</w>
tru th</w>
pp ing</w>
lo c
jeal ous</w>
activ ity</w>
C OM
ca tion</w>
wor king</w>
we ight</w>
reali ze</w>
p as
l ev
ver sion</w>
se s
ou d</w>
fi g
du e</w>
a a
Ch e
ti e</w>
str ange</w>
pro vi
l at
col le
M an</w>
sh ort</w>
him self</w>
vi sit</w>
pp er</w>
gre at
contro l</w>
C hi
s in</w>
qu ire</w>
me an
er y</w>
as h</w>
appreci ate</w>
W ill</w>
R A
per haps</w>
gent le
e en</w>
bu tt</w>
your s</w>
them selves</w>
shi ps</w>
person al</w>
inter course</w>
han ds</w>
h y
c ally</w>
T om</w>
On ce</w>
HO W</w>
v en
tw ice</w>
su cks</w>
li es</w>
cra p</w>
S A
EA R
some body</w>
orig in
n ny</w>
l o</w>
i ther</w>
h un
b al
S ta
S S</w>
tr a
te st</w>
o ve</w>
it ch</w>
di rec
t v</w>
t able</w>
kno wn</w>
d ar
Wh ere</w>
Some times</w>
8 0</w>
lau gh
cer tainly</w>
br ing</w>
Y S</w>
WA S</w>
A S</w>
wa ste</w>
re turn</w>
do or</w>
conver sa
act ing</w>
acc ep
T i
GOO D</w>
f y</w>
ep s</w>
am n</w>
al though</w>
L LY</w>
sp el
r an
na med</w>
co ver</w>
M c
z ed</w>
vie w</w>
um p</w>
some where</w>
po s
enjo y
deser ve</w>
W OULD</w>
SOM E
tion al</w>
ther wise</w>
son s</w>
in side</w>
ic al</w>
g y</w>
fig ure</w>
fa ir</w>
differ ence</w>
c d</w>
Ro ck</w>
c le
b ay</w>
a head</w>
T O
w at</w>
tr ou
t ro
r un
lea d</w>
l ink</w>
do m</w>
_ _
st ly</w>
person ally</w>
friend ship</w>
e ye</w>
al y</w>
F RI
D ep
su ck</w>
pre ss</w>
iti on
in t</w>
din ner</w>
d ru
c ri
P re
v al
ma in</w>
m ous</w>
it ion</w>
WA Y</w>
S ha
P P
G U
us es</w>
to m</w>
t ook</w>
supp o
p unk</w>
U SE</w>
D ONT</w>
su l
purcha se</w>
oun t</w>
n u
inf o</w>
gen er
dun no</w>
S P
Li mewire</w>
Goo gle</w>
ti es</w>
re p
l ying</w>
f ish</w>
apologi ze</w>
ad dress</w>
W OR
M i
D E
sc ared</w>
pla yer</w>
me tal</w>
em ent</w>
An y
w ood</w>
fa ke</w>
d ev
F ri
ta king</w>
invol ved</w>
dr ink</w>
al k</w>
Y ES</w>
S U
ther es</w>
th in</w>
sin ging</w>
flir ting</w>
ell o</w>
e k</w>
di ed</w>
ch ea
Lu ck
H er</w>
Gu ys</w>
Bi g</w>
pl an
per s</w>
par ty</w>
intellig ent</w>
g ers</w>
ch an
bo ther</w>
W E</w>
re gar
issu e</w>
ho p</w>
d anc
ab i
B y</w>
po li
en s</w>
c at</w>
M I
H ope</w>
Bo y</w>
1 2</w>
w ed</w>
e- mail</w>
FRI EN
st ar</w>
mes sage</w>
j a
go d</w>
T E</w>
ST I
wonder ing</w>
tu res</w>
sig ni
s un
re gre
p lus</w>
lo y
ga z
flow ers</w>
experi enc
kno w
gi ving</w>
C om
1 6</w>
* Good</w>
y el
our s</w>
e mp
dr unk</w>
deci sion</w>
attemp t</w>
ang ry</w>
am er
un ch</w>
li ves</w>
li ar</w>
i di
gre en</w>
coun t</w>
con fu
ch ang
b out</w>
Luck *</w>
wor se</w>
t un
t om
l and</w>
disc us
charac ter</w>
al ing</w>
ag es</w>
acc ept</w>
tr ack</w>
p ing</w>
ic ha
i e</w>
fore ver</w>
J u
1 3</w>
so ci
s mo
s li
mon th</w>
in es</w>
en e</w>
as su
U P</w>
Sh ould</w>
B ar
t ea
st ep</w>
si des</w>
h ind</w>
co z</w>
che ater</w>
car to
T H</w>
REA LLY</w>
conversa tion</w>
un sure</w>
trou ble</w>
ren tly</w>
cele br
bu sy</w>
H i
DV D</w>
th anks</w>
st ers</w>
sp ell</w>
lu cky</w>
in ing</w>
ic i
gu e</w>
bor n</w>
ad d
T A
G IR
suppo sed</w>
signi fic
ob viously</w>
downlo ad
ch es</w>
F IN
Bl ack</w>
un able</w>
ki dding</w>
in ed</w>
f la
enjoy able</w>
easi er</w>
dis like</w>
b lue</w>
al right</w>
N ever</w>
1 0
yl or</w>
tre at</w>
sho t</w>
relation ships</w>
gi ft</w>
bir th
w ow</w>
w hats</w>
v y</w>
pic tures</w>
mista ke</w>
ma gaz
ex tre
an dy</w>
I dol</w>
G E</w>
B aby</w>
tit le</w>
ti s
fel t</w>
fa mous</w>
d less</w>
b f</w>
ar ea</w>
a vo
Li fe</w>
AB OUT</w>
si x</w>
minu tes</w>
mat ters</w>
de ath</w>
b ar</w>
TH ERE</w>
OO OO
w on</w>
un i
un faithful</w>
u n</w>
k ick</w>
je ct</w>
ho l
goo d
de p
appe ar
am ount</w>
N or
D is
favor ites</w>
OR E</w>
F ind</w>
Chri st
ex amp
d on
comple tely</w>
comp any</w>
be hind</w>
W ith</w>
W ANT</w>
THE M</w>
H ello</w>
t or
p ho
d dy</w>
as ks</w>
adm it</w>
a i</w>
wi re
w ouldnt</w>
vi d</w>
tel ls</w>
sh ing</w>
o d</w>
is nt</w>
hu ge</w>
gra de</w>
c ry</w>
P L
K ing</w>
Har ry</w>
w it</w>
sh ar
p ain</w>
d d</w>
ab ove</w>
S m
P ER
Ke ep</w>
. I</w>
wor ked</w>
ru de</w>
recei ve</w>
re ly</w>
p ants</w>
c ed</w>
D A
re f
pp l</w>
ou l</w>
kil led</w>
gi ves</w>
dre ams</w>
cu s</w>
c ked</w>
Re member</w>
O ut</w>
th ank</w>
st ate</w>
pl aces</w>
issu es</w>
ic a</w>
hon estly</w>
f it</w>
ep ing</w>
ad vi
Q U
J a
in ten
f al
e .com</w>
c ut</w>
be ach</w>
a mu
vide os</w>
ter rible</w>
icha el</w>
g row</w>
fe males</w>
ant as
ad d</w>
ab solu
Bo ys</w>
B ra
w ea
mm m</w>
c king</w>
bo x</w>
anno ying</w>
S i
S how</w>
En g
st y</w>
st ance</w>
in ti
en ded</w>
a ir</w>
y y
v ent</w>
s la
qu ality</w>
po p</w>
hi gh
ex plain</w>
col or</w>
co p
G r
y r
up set</w>
to wn</w>
ic es</w>
comm un
U S
3 0</w>
sti ck</w>
sel e
sear ching</w>
pre fer
ne l</w>
i er</w>
fol low</w>
expe ct</w>
enter tain
cur rently</w>
c ard</w>
C K
An g
1 1</w>
s low</w>
posit ive</w>
me wire
individu al</w>
hi lar
for m</w>
f ood</w>
er ci
comm it
cau ght</w>
boo ks</w>
answer ed</w>
G I
up on</w>
sc ary</w>
qu it</w>
no tice</w>
fortun ately</w>
b ack
ack son</w>
Joh nny</w>
vir gin</w>
signific ant</w>
re ss</w>
m outh</w>
lyric s.com</w>
la me</w>
infor m</w>
d amn</w>
W or
sex ually</w>
s s
or ge</w>
li c</w>
f ell</w>
de cent</w>
SH OULD</w>
H on
tur ned</w>
n one</w>
gr am</w>
exc ept</w>
dum p</w>
at or</w>
W OM
C O
A M</w>
ta ste</w>
pr ac
origin al</w>
mewire .com</w>
l l
gentle man</w>
f an
c ts</w>
beli ev
ad di
Un less</w>
SE L
shi r
seri ously</w>
re lea
pa ti
lo ver</w>
les bi
dri ve</w>
d ated</w>
cat ch</w>
birth day</w>
TI ME</w>
OU N
pro gram</w>
pl an</w>
mer ely</w>
fa v
be gin</w>
b en
appro pri
wat er</w>
qu e</w>
parti cu
out side</w>
m ess</w>
li ving</w>
d en
ck en</w>
SOM E</w>
P O
tt e</w>
pu b
pen is</w>
li ght</w>
i ly</w>
ent ually</w>
clas sic</w>
cla ss</w>
bu n
WH EN</w>
Th ank</w>
F U
EN T</w>
1 00</w>
vo te</w>
refer ring</w>
op tion</w>
lar s</w>
la y</w>
d ers</w>
c ome
b loo
as si
K elly</w>
IT S</w>
I D</w>
s ang</w>
regre t</w>
pl enty</w>
oun ds</w>
lo ving</w>
jo kes</w>
ha ha</w>
examp le</w>
ex pen
en ted</w>
d on</w>
d en</w>
ct or</w>
ac ts</w>
T ELL</w>
Sta r</w>
S ince</w>
re pe
p hi
itt le</w>
consider ed</w>
ck et</w>
ER Y</w>
D U
so l
r or</w>
kis sing</w>
hur ts</w>
h ours</w>
big ger</w>
M AR
read ing</w>
r ac
ki e</w>
ex t</w>
dol lars</w>
b ye</w>
AN Y</w>
st e
pro duc
pp ed</w>
pla y
na mes</w>
h i</w>
ev en
divor ce</w>
avo id</w>
Ch ar
su e</w>
si an</w>
o therwise</w>
ex ist</w>
ell ent</w>
cr ush</w>
b lo
b ers</w>
M y
CA USE</w>
B A
wh om</w>
s ent</w>
rom ance</w>
pla ys</w>
ma j
lea r</w>
gla d</w>
be ha
b a</w>
appropri ate</w>
TH EN</w>
Simp ly</w>
O P
K ING</w>
Joh n</w>
Che ck</w>
su per
ne ga
k a</w>
ir s</w>
Ta ylor</w>
TT ER</w>
Ever yone</w>
0 s</w>
we b</w>
st op
s oo
ru ise</w>
pro te
por n</w>
extre m
ani c</w>
V I
S ay</w>
M U
se cre
no body</w>
ne ws</w>
nat ure</w>
li mewire.com</w>
inter est</w>
de ep</w>
any where</w>
L in
Ever y
ri ch</w>
imag ine</w>
gh t
ei ght</w>
d ence</w>
cho col
any body</w>
ain t</w>
ag ed</w>
P E
F A
19 9
ti red</w>
stre et</w>
ro ad</w>
pres ent</w>
li on</w>
fi f
essi ca</w>
co st</w>
app ear</w>
accep table</w>
M any</w>
F rom</w>
spea king</w>
rec all</w>
ra in</w>
par k</w>
op p
mm er</w>
li m
expen sive</w>
el d</w>
clu e</w>
ad dy</w>
D E</w>
BE ST</w>
se qu
rec ently</w>
re li
no re</w>
gi ven</w>
fin ding</w>
fin ally</w>
extrem ely</w>
exc ellent</w>
de ta
ali ve</w>
Wa it</w>
R i
P au
L U
K I
F or
Bo th</w>
* *</w>
wr it
tr an
th es</w>
s ses</w>
respon se</w>
relea sed</w>
la dies</w>
hum or</w>
hu man</w>
g g
er ry</w>
ep h
d irty</w>
T ER</w>
Pro b
M E
Lu ck</w>
G A
C a
1 7</w>
sa tis
rec or
po se</w>
pi c</w>
mom ma</w>
low ing</w>
ho se</w>
fe et</w>
f ire</w>
en ter</w>
d v
c lear</w>
ag ain
WH O</w>
T u
S W
K a
st en</w>
no r</w>
lu v</w>
lev el</w>
fami liar</w>
commun ic
ck er</w>
c ir
brea sts</w>
b re
b ad
W as</w>
SEL F</w>
1 st</w>
ta ken</w>
t ough</w>
possi bly</w>
ph y</w>
c le</w>
appear ance</w>
ac tions</w>
S ON</w>
O k</w>
L ittle</w>
J ack</w>
2 1</w>
x i
ri ous</w>
or ity</w>
mis sed</w>
m on</w>
k ic
f ur
c es</w>
b ought</w>
Mo vi
g er
for got</w>
f antas
ex i
ev entually</w>
concer ned</w>
H ol
F o
st ation</w>
ri c</w>
p t</w>
ob vious</w>
min ds</w>
li ed</w>
jer k</w>
he ck</w>
great est</w>
confi dent</w>
carto on</w>
b /
at ch</w>
Whi le</w>
M an
te en
ru in</w>
re ality</w>
me e
magaz ine</w>
ear ing</w>
ch ri
1 4</w>
ver age</w>
sm ell</w>
f ool</w>
con ne
b by</w>
W W
Th ink</w>
N a
M AN</w>
D Y</w>
B I
un s</w>
tt en</w>
sh it</w>
physi cal</w>
mean ing</w>
hon ey</w>
her self</w>
f ond</w>
cou sin</w>
colle ge</w>
clo thes</w>
Th e
G ot</w>
00 0</w>
tur ns</w>
plea s
pe fully</w>
oooo oooo
hilar ious</w>
co ver
WH Y</w>
S te
O r
Bro wn</w>
sti an</w>
s hoo
s ell</w>
or k</w>
on g
ne cess
it ney</w>
en se</w>
W N</w>
M r.</w>
G S</w>
th ou
sh a</w>
relation s</w>
rec ord</w>
reas ons</w>
perfor med</w>
no tic
nat ur
mi ly</w>
men tion</w>
know le
for ward</w>
UR E</w>
Prob ably</w>
E X
Ang el
tou ch</w>
th o</w>
pa id</w>
every body</w>
ep y</w>
cu l
chea p</w>
cal ls</w>
S S
Jo e</w>
tal ented</w>
ser v
il legal</w>
hel ped</w>
gi e</w>
em o</w>
e qu
ad ult</w>
absolu tely</w>
a ds</w>
a c</w>
TI ON</w>
J ackson</w>
H i</w>
Ge orge</w>
F RO
F E</w>
D ont</w>
C ome</w>
stu ck</w>
sel f
hor rible</w>
comple te</w>
bu sin
be gin
be g
amu sing</w>
4 0</w>
s .
provi de</w>
le gs</w>
l ust</w>
e fore</w>
do w</w>
appe ars</w>
O kay</w>
MA KE</w>
Christ mas</w>
v is</w>
sa ve</w>
or g
lear ned</w>
ha vent</w>
ha n</w>
gr and
for t</w>
fi ed</w>
fe e</w>
chan nel</w>
ce ed</w>
T wo</w>
O THER</w>
J e
FRO M</w>
v ely</w>
t all</w>
sti c</w>
stan ding</w>
per ate</w>
om s</w>
no se</w>
mo stly</w>
ho t
cop y</w>
be came</w>
b ab
an ger</w>
I R</w>
F all</w>
D re
D ar
Ch uck</w>
2 nd</w>
wee k
web sites</w>
tr a</w>
th ird</w>
s illy</w>
qu ick
or row</w>
mi x</w>
ke eps</w>
jo in</w>
du ce</w>
cle an</w>
c um
beha vi
be er</w>
act ress</w>
Par k</w>
M ichael</w>
M P
J es
Eng lish</w>
Da vid</w>
DO ES</w>
yo n
y an</w>
posit ion</w>
n ear</w>
lo cation</w>
h h</w>
ff y</w>
f lo
dru gs</w>
chi ck</w>
ca p
again st</w>
P r
C ra
surpri sed</w>
st at
si ons</w>
si ght</w>
p age</w>
n on
mo ved</w>
m ood</w>
dis gu
confu sed</w>
busin ess</w>
bo red</w>
advi se</w>
Ti me</w>
I M</w>
H IS</w>
F u
ER S</w>
B ea
B a
w earing</w>
shir t</w>
sc ene</w>
re sul
po or</w>
man ner</w>
lo cal</w>
ig nore</w>
fi gh
f ile</w>
e ce</w>
dr in
danc ing</w>
cre di
bro ken</w>
bi e</w>
S ong</w>
Ne wer</w>
Li sten</w>
G H</w>
A d
u de</w>
tr av
to wards</w>
re l
r ush</w>
pp y</w>
or i
m o</w>
il ed</w>
id eas</w>
han ging</w>
episo des</w>
d ates</w>
d -
bro wn</w>
QU E
ON LY</w>
st ur
s wee
r ying</w>
po d</w>
oc ca
le ts</w>
l unch</w>
l oud</w>
i ds</w>
g ain</w>
frea k</w>
a st</w>
T AL
R Y</w>
In di
FRIEN D</w>
C ON
v ari
ton ight</w>
t ball</w>
suc cess
st ro
st in
s ever
s al
ort un
mp s</w>
m ent
ition ally</w>
it ch
es sing</w>
eng ine</w>
c tive</w>
at les</w>
Tr ust</w>
P RO
Mu sic</w>
C A</w>
BE CAUSE</w>
s oul</w>
quick ly</w>
pro ve</w>
mi ddle</w>
m p</w>
idi ot</w>
gre e</w>
f ly</w>
e ty</w>
discus s</w>
chocol ate</w>
cal ling</w>
a bu
S AY</w>
J en
HH HH
H ea
F I
An y</w>
19 8
you re</w>
sp or
nega tive</w>
mor ning</w>
li l</w>
enc es</w>
en ever</w>
ear ly</w>
de si
de l</w>
de c
am ing</w>
W il
W al
Su per
Per son
P hi
Hil ton</w>
F OR
E ither</w>
w en</w>
po wer</w>
po st</w>
p sy
go tten</w>
bu t
Some one</w>
Po tter</w>
No thing</w>
H al
G E
D AY</w>
2 5</w>
w el
un es</w>
o dd</w>
na sty</w>
it ems</w>
for ce</w>
f as
ev ent</w>
en d
dar k</w>
cu rious</w>
comm erci
amer ican</w>
a verage</w>
Y oun
Wh ite</w>
N EVER</w>
Movi e</w>
M ay</w>
L il</w>
Fa mily</w>
C ol
Bo b</w>
B Y</w>
AC K</w>
un t</w>
th row</w>
tal ent</w>
t ab
star s</w>
pleas ant</w>
oc cu
ob ses
musi cal</w>
mu l
lo ad</w>
li ps</w>
lesbi an</w>
it em</w>
ho st</w>
hand some</w>
b le
answer ing</w>
an o</w>
P ink</w>
C u
un attractive</w>
tt er
th re
t oo
st al
se ction</w>
hoo d</w>
hel p
every day</w>
eg as</w>
ea se</w>
abi lity</w>
Th ese</w>
P lus</w>
G i
B ad</w>
x ed</w>
su ff
ri es</w>
opp ortun
i ons</w>
g ur
em bar
e ating</w>
appro ach</w>
M il
M ORE</w>
F EE
A n</w>
yr s</w>
success ful</w>
no pe</w>
individu als</w>
hi p</w>
h ome
fil ms</w>
ex -
enti re</w>
chi cken</w>
T E
L S</w>
J ames</w>
H u
H ell</w>
F e
E Y</w>
C a</w>
A ct
A ce</w>
w ro
sho p</w>
sever al</w>
s sed</w>
s ..</w>
run ning</w>
re main</w>
pri l</w>
particu lar</w>
p ass</w>
mp ed</w>
lo ser</w>
im pres
i al</w>
deta ils</w>
dep end</w>
concer t</w>
comm on</w>
am a</w>
Se x</w>
Se e</w>
S pe
Bu y</w>
A m</w>
1 8
/ her</w>
. i</w>
si on
s om
re al
perfor m</w>
pa per</w>
or ous</w>
ni e</w>
ni a</w>
n ers</w>
mat ch</w>
la s</w>
ic s</w>
hea vy</w>
fre qu
dr um
ca su
bas ed</w>
b ass</w>
T hose</w>
QUE STI
M TV</w>
B ri
AN SW
w ins</w>
tot al</w>
pro c
ne ck</w>
low ed</w>
laugh ing</w>
lan gu
knowle dge</w>
gro ss</w>
g es</w>
ear th</w>
ch ris</w>
bun ch</w>
V al
U se</w>
R ight</w>
R ic
Pau l</w>
M ari
H e
C ha
6 0</w>
star ts</w>
s il
ri d</w>
regar dless</w>
re qu
o le</w>
lo ws</w>
inclu de</w>
cre d
con f
bra in</w>
bi lity</w>
b/ c</w>
ag re
TR Y</w>
S un
P u
y n
wro te</w>
wee ks</w>
wal king</w>
su per</w>
sp ouse</w>
si x
si cally</w>
sh ut</w>
p -
musi ci
la w</w>
it al</w>
fi c</w>
fa ir
enjo ys</w>
behavi or</w>
ar ly</w>
ar a</w>
J essica</w>
C ould</w>
ur ch</w>
st a</w>
sh e
r as
qui et</w>
pos se
na ked</w>
mis sing</w>
mee ting</w>
ja il</w>
hh hh
fa v</w>
every where</w>
ev il</w>
chang ed</w>
bu l
bl ind</w>
bl es</w>
S o
R ob
N ic
Act ually</w>
19 7
tion ed</w>
thou ghts</w>
se m
re qui
ke ts</w>
ar ent</w>
S ure</w>
S top</w>
R U
LO V
E min
A L</w>
v ac
tic ally</w>
ssi ve</w>
s nt</w>
s n
respon d</w>
p an
op tions</w>
mo ving</w>
m ally</w>
jo h
h in
c anc
arti sts</w>
af ter
Youn g</w>
P i
P AR
N I
L ET</w>
In ter
GIR L</w>
GI VE</w>
Emin em</w>
AN Y
9 0</w>
usu al</w>
tom orrow</w>
su m
rela x</w>
pp o
peri od</w>
p ul
no te</w>
nee ded</w>
in credi
hi de</w>
for give</w>
do ctor</w>
d at</w>
cre am</w>
bur n</w>
b il
W hatever</w>
LI FE</w>
ta tion</w>
st on</w>
spel ling</w>
recei ved</w>
p pers</w>
loo se</w>
k a
in e
fur ther</w>
d ear</w>
cre epy</w>
cor rec
appe aling</w>
add ition</w>
W e
W E
S at
HA S</w>
Gu y</w>
B rea
A dd
vi a</w>
v ic
th ir
supp ort</w>
soun d
s our
plea sure</w>
or ies</w>
off er</w>
ni fer</w>
le tter</w>
k no</w>
hum orous</w>
girl friends</w>
fol lowing</w>
e th</w>
c y</w>
bo ard</w>
bloo d</w>
bad ly</w>
any ways</w>
W i
U S</w>
T oo</w>
T hats</w>
S c
P la
w er
v in</w>
ty pes</w>
tit ude</w>
st ated</w>
sho wing</w>
prac tice</w>
or n</w>
ob tain</w>
ne ither</w>
loy d</w>
k ers</w>
gr ound</w>
gen re</w>
ge l</w>
confi dence</w>
co ld</w>
b o</w>
T alk</w>
K S</w>
** **
wa ke</w>
th a</w>
so f
s kin
s a</w>
ra pper</w>
r um
pub lic</w>
perfor m
pa c</w>
p ra
mat ely</w>
it t</w>
ho le</w>
h our</w>
figh ting</w>
f l
el ls</w>
e bay</w>
cur rent</w>
c s</w>
ar ri
Y ork</w>
Th er
T Y</w>
Qu een</w>
Nor ris</w>
M at
C ruise</w>
un e
st om
respon si
p ink</w>
lin es</w>
l ou
kis sed</w>
inv ite</w>
in tro
g le
f ts</w>
exc ited</w>
emo tions</w>
e ..</w>
ac ci
PE OP
PEOP LE</w>
P ri
N A
E very</w>
D J</w>
tea m</w>
t tom</w>
su mmer</w>
sho es</w>
sa fe</w>
re st
r y
po sed</w>
on y</w>
li ca</w>
gra phy</w>
g es
fe at
des cri
d i</w>
c ure</w>
c en
T ING</w>
ur self</w>
th ro
ta pe</w>
some time</w>
li fe
in s
hu h</w>
fe ction</w>
experienc ed</w>
eri al</w>
emo tional</w>
defin ately</w>
deci ded</w>
begin ning</w>
av at
anc y</w>
V ERY</w>
P I
M M
Be ing</w>
Add itionally</w>
vo ted</w>
te ch
spor ts</w>
spel led</w>
p ush</w>
obses sed</w>
notic ed</w>
n ine</w>
j us</w>
inti mate</w>
gu essing</w>
fe atu
f ru
du h</w>
dri ving</w>
disa gree</w>
correc tly</w>
ch urch</w>
c o</w>
b la
act ors</w>
T ED</w>
F IR
Bra d</w>
200 6</w>
yon ce</w>
tt a</w>
sub ject</w>
sp ending</w>
li king</w>
li ck</w>
it u
il ing</w>
hear ing</w>
eng lish</w>
ani el</w>
an ish</w>
a tions</w>
a se</w>
SE E</w>
P U
O b
M EN</w>
J O
G ra
FIN D</w>
2 4</w>
w oo
vi ol
sho wer</w>
rel ated</w>
pre viously</w>
mm mm
la zy</w>
help ful</w>
gu il
gen u
de ep
c rea
aw ful</w>
at titude</w>
Un fortunately</w>
S im
R u
LO O
L oo
HA R
Dep ends</w>
Angel ina</w>
AS K</w>
A u
1 2
z ing</w>
v a</w>
sin gers</w>
sen ger</w>
see k</w>
s ky</w>
s co
ren ch</w>
poli ce</w>
my space</w>
men tioned</w>
loc ated</w>
jo y</w>
fi eld</w>
dra ma</w>
albu ms</w>
U p</w>
St art</w>
R om
M IN
IT E</w>
A b
wor ried</w>
ty pic
te eth</w>
sug ges
st eri
sh oul
pl ane</w>
ne igh
natur al</w>
ly wood</w>
in ess</w>
hand le</w>
f ans</w>
exc use</w>
er ous</w>
ent y-
contin u
co f
c ting</w>
bo ttom</w>
assu me</w>
an tly</w>
TO O</w>
L ord</w>
DI D</w>
D r.</w>
C AR
Br itney</w>
ter na
self -
prom ise</w>
physi cally</w>
opportun ity</w>
m ur
lo g
list ed</w>
fin i
fin ger</w>
brea k
ST U
S li
H ouse</w>
H app
H EL
B ack</w>
v il
sun g</w>
re d
p un
on to</w>
m ber</w>
j ump</w>
in ted</w>
hel lo</w>
frequ ently</w>
fo cus</w>
fas hi
easi ly</w>
e f</w>
e e</w>
e .
cho se</w>
T ri
RI GHT</w>
P l
La st</w>
Jo lie</w>
Be atles</w>
ANSW ER</w>
A pp
wh enever</w>
un intelligent</w>
tt on</w>
tit led</w>
ter m</w>
tal lica</w>
nor mally</w>
mo on</w>
kno ck</w>
jo king</w>
in o</w>
ig nor
gh tly</w>
eng age</w>
disgu sting</w>
de ter
cof fee</w>
celebr ity</w>
ar ds</w>
a part</w>
SOME ONE</w>
S car
O V
E d
B ow</w>
Amer ica</w>
y ear
ver s</w>
ton gue</w>
th ier</w>
t ch</w>
secre t</w>
qu o
p lu
im medi
ex tra</w>
ex as</w>
disa ppo
dis cover</w>
con v
Wom an</w>
The ir</w>
THE IR</w>
R ed</w>
M ag
L L
J ones</w>
HA PP
G REA
EA SE</w>
D own</w>
1 9</w>
sig ns</w>
s kin</w>
re aly</w>
pur sue</w>
ma in
in se
i a</w>
he al
fin ds</w>
en ny</w>
ea k</w>
dro p</w>
cover ed</w>
che st</w>
c ity</w>
br a</w>
af fection</w>
T ER
S end</w>
S ear
S H</w>
Person ally</w>
O .
MAR RI
L ea
H oo
F in
Chri stian</w>
wan ting</w>
tiv ely</w>
sle eping</w>
on er</w>
oc cur
o p</w>
ne w
gi fts</w>
g f</w>
ef fec
cour age</w>
ca st</w>
bro thers</w>
boy friends</w>
at tend</w>
ani me</w>
W est</w>
W ars</w>
TI ON
Sear ch</w>
QUESTI ON</w>
HO T</w>
GU Y</w>
F ran
D ol
C lar
.. but</w>
wr iting</w>
win dow</w>
tal ks</w>
tal ked</w>
t in
stan tly</w>
sit ive</w>
r d</w>
pl z</w>
pa ir</w>
oun tain</w>
lon ely</w>
kno wing</w>
i red</w>
hu g</w>
f our
clu bs</w>
ac comp
V egas</w>
T y
S O
OUN D</w>
OO L</w>
H ear
F E
EV ER
vir gin
s ci
ro ll</w>
reli gi
posse ss</w>
o per
minu te</w>
i dol</w>
for d</w>
fav or</w>
ch ances</w>
casu al</w>
be ar
af fair</w>
a a</w>
YOU R
NE ED</w>
N ext</w>
LO T</w>
Jes us</w>
H EAR
B illy</w>
.. i</w>
zz a</w>
wa y
um m</w>
soo o</w>
sha me</w>
s i</w>
ru e</w>
re g
pu ll</w>
loc ate</w>
langu age</w>
ju dge</w>
ju d
immedi ately</w>
ho pefully</w>
exc iting</w>
ev in</w>
ei ve</w>
dv d</w>
depen dent</w>
cla ssi
car ing</w>
c andy</w>
an k
WA YS</w>
Po d</w>
P RE
G a
wi ves</w>
tw enty-
some what</w>
sh ouldnt</w>
ro ss</w>
r hy
pri v
por no
pl ac
pic ked</w>
o l</w>
o ke</w>
ne t
li eve</w>
lea ving</w>
it ting</w>
inclu ding</w>
high ly</w>
he he</w>
ha v</w>
gu n</w>
ch ed</w>
c lar
at man</w>
PL EASE</w>
PER SON</w>
LO OK</w>
Hi gh</w>
H ot</w>
EA R</w>
C la
BE TTER</w>
1 .
- up</w>
writ ten</w>
wor thy</w>
the me</w>
stop ped</w>
sho pping</w>
ro cks</w>
r ace</w>
ir ing</w>
ho tt
h its</w>
g or
foo lish</w>
fini shed</w>
el ess</w>
ef fort</w>
cro ss</w>
c an
be d
b it
b ing</w>
ac ks</w>
W ELL</w>
T ur
P S</w>
MO ST</w>
M B
FIR ST</w>
F r
F la
C U
C I
Al ways</w>
A pril</w>
surpri se</w>
speci ally</w>
sound track</w>
se y</w>
s even</w>
ro ses</w>
ri de</w>
re quire</w>
qu ick</w>
pho to
pas sed</w>
over weight</w>
mp ing</w>
ma ge</w>
in ation</w>
happen ing</w>
fu l
fin ish</w>
fantas tic</w>
commit ment</w>
che ese</w>
big gest</w>
Whi ch</w>
TA KE</w>
S HI
M ON
Gre at</w>
Goo d
GO D</w>
CH EA
. but</w>
xi mately</w>
sin g
s -
re ach</w>
pre vious</w>
pre tend</w>
pi ece</w>
on gs</w>
necess ary</w>
mo del</w>
m ents</w>
i pod</w>
ex p
ei gh
cou l
b low</w>
avat ar</w>
ac y</w>
ac qu
WOM EN</w>
S outh</w>
S ounds</w>
S URE</w>
P E</w>
Dep p</w>
Be lieve</w>
tic s</w>
st itu
st age</w>
sc ri
r ound</w>
pro ceed</w>
perform ance</w>
par ed</w>
org as
n es
mat erial</w>
is on</w>
fa ult</w>
f ro
eng aged</w>
cre ated</w>
ci p
cho ices</w>
bo ss</w>
be comes</w>
at ri
N E</w>
M ad
Happ y</w>
Dis ney</w>
Da ve</w>
C all</w>
C S
B ay</w>
yo nd</w>
x x</w>
uni que</w>
t ons</w>
sit ting</w>
mm a</w>
fri gh
er o
cre ate</w>
com pe
ch uck</w>
at ers</w>
a while</w>
SE X</w>
L EA
F i
yel low</w>
tw enty</w>
spo t</w>
skin ny</w>
s l
ro le</w>
prom is
pro f
p is
mon key</w>
k ept</w>
k ar
him /her</w>
h at</w>
g ate</w>
g as</w>
fun ni
for nia</w>
fi x</w>
e go</w>
d addy</w>
coun sel
con d
col ors</w>
ca ke</w>
bi sexual</w>
beau ty</w>
at e
T om
RE E</w>
OU GH</w>
No body</w>
Jen nifer</w>
I M
F F</w>
D s</w>
Be fore</w>
An sw
A c
z zy</w>
wi ld</w>
teen ag
st ru
so ft</w>
rep ly</w>
oun d
maj ority</w>
m ir
lo gy</w>
essi on
divor ced</w>
crea tive</w>
cont ent</w>
ach ed</w>
W in
W ay</w>
U R</w>
St ay</w>
Mo ve</w>
GREA T</w>
D es
tt ers</w>
sp ent</w>
sen sitive</w>
reali zed</w>
re sem
o k
low er</w>
lar ger</w>
hor se</w>
har der</w>
fortun ate</w>
for mer</w>
f ear</w>
entertain ing</w>
em in
e y
direc tly</w>
desi res</w>
des perate</w>
de pres
de ed</w>
d ang
consider ing</w>
concer n</w>
co s</w>
cir cum
che cked</w>
c ru
c ents</w>
bu il
boo bs</w>
bo w</w>
b lu
b .com</w>
Val ent
Super man</w>
Sm ith</w>
P A
N ope</w>
L ONG</w>
Ex c
D on
B ur
B ACK</w>
A F
' M</w>
star ting</w>
so a
serv ice</w>
s en</w>
r it
op en
ne arly</w>
m el
lo sing</w>
in iti
hea ds</w>
f ar
con stantly</w>
co de</w>
cal m</w>
c ell</w>
bo w
bir th</w>
ba th
ba sically</w>
appro ximately</w>
W alk</w>
REA L</w>
N Y</w>
Mi ke</w>
M or
Le e</w>
K ES</w>
I I</w>
F loyd</w>
Du de</w>
D r
C HI
BI G</w>
AL WAYS</w>
A no
y .com</w>
ver se</w>
v ana</w>
to pic</w>
ther efore</w>
t ar
sta ur
st em</w>
shoo t</w>
sh all</w>
re staur
re ma
re co
p ite</w>
ol f</w>
li er</w>
in t
im press</w>
hott est</w>
hi story</w>
fu ck</w>
do gs</w>
de li
bre ath</w>
br une
be sides</w>
be have</w>
be coming</w>
bab ies</w>
b an</w>
WOM AN</w>
W R
V i
T ra
S ONG</w>
OM G</w>
El vis</w>
E -
BO TH</w>
BA D</w>
Any way</w>
A sh
we st</w>
vie ws</w>
under standing</w>
tion ally</w>
ti al</w>
th at
stan ds</w>
si st</w>
scre en</w>
s .</w>
ra se</w>
pr ay</w>
plan ning</w>
pati ent</w>
mal s</w>
hat es</w>
gle .com</w>
fif teen</w>
fair ly</w>
ex press</w>
ear n</w>
drin king</w>
care er</w>
bo b</w>
blon d</w>
attemp ting</w>
al lowed</w>
al ities</w>
ad ore</w>
YOUR SELF</w>
Wor ld</w>
M er
Fri ends</w>
E ar
De fin
D aniel</w>
C ity</w>
B il
wh ose</w>
wa snt</w>
w ell
tre ats</w>
str on
str ing</w>
se par
ri sk</w>
repe at</w>
re je
r on</w>
prefer ence</w>
ou gh
li ot</w>
in no
gener al</w>
fil es</w>
est er
charac ters</w>
car ry</w>
bu m</w>
attrac t</w>
ar gu
ap an
V is
S we
S ur
RE LA
R un</w>
OV ER</w>
M in
EN D</w>
CS I</w>
B ill</w>
B AB
AL LY</w>
, 000</w>
z i
z en</w>
war m</w>
w it
virgin ity</w>
us tin</w>
tri es</w>
th or
suc ked</w>
sp i
sp ac
ro se</w>
re gu
r r
r an</w>
ph e
mo ves</w>
mil lion</w>
mar i
ma ke
kin ds</w>
in ches</w>
foo t</w>
fal ling</w>
er o</w>
do ws</w>
bo at</w>
ad ver
Th anks</w>
O LD</w>
NE W</w>
L IN
H A</w>
EE P</w>
Du ff</w>
C or
B oo
2 0
w boy</w>
tun e</w>
t -
sol ve</w>
se a</w>
s lu
s even
pri ce</w>
ph rase</w>
par ts</w>
ir vana</w>
impres sion</w>
i Pod</w>
ha ir
g ni
f ac
d om
cr ying</w>
coul dnt</w>
commerci al</w>
clo thing</w>
c lear
bu ying</w>
b i</w>
apan ese</w>
ang a</w>
__ __
W atch</w>
P LA
P .
K iss</w>
G en
Con si
CO M</w>
C OULD</w>
2 2</w>
wal ks</w>
wal ked</w>
w /
un ny</w>
u ti
st and
si sters</w>
sh u
s oooo
ru le</w>
ro ck
off ense</w>
le g</w>
kic ked</w>
hoo k</w>
great ly</w>
g ri
fre e
ex pres
er a</w>
embar ras
da y
coun ts</w>
come dy</w>
ch all
celebr ities</w>
ani mal</w>
addi cted</w>
Simp son</w>
P a
MU CH</w>
M om
K ong</w>
Inter net</w>
D a</w>
C oun
C T</w>
An i
A tt
with in</w>
the y
t ree</w>
su peri
sh or
sele ct</w>
ri e</w>
re minds</w>
r a</w>
pho to</w>
p h</w>
listen ed</w>
l li
k son</w>
infor med</w>
hol ding</w>
go in</w>
ge t
g ed</w>
flo or</w>
est y</w>
eph one</w>
enti rely</w>
de st</w>
d ying</w>
co w</w>
co ho
ari ly</w>
al es</w>
ac ho
Y a</w>
W ith
GO T</w>
C re
C lu
Ano ther</w>
A A
x ic
week end</w>
v ol
tr ash</w>
smo king</w>
sex u
sc are</w>
ru ce</w>
pe ace</w>
o re
ner v
mes sed</w>
lo ck</w>
li ze</w>
l i</w>
ke eping</w>
k et</w>
j unk</w>
ition al</w>
imag es</w>
im d
fa ith</w>
f lu
f ir
es .com</w>
enjo ying</w>
deser ves</w>
che ats</w>
be cu
be ar</w>
b ath</w>
attrac tion</w>
a -
Vis it</w>
TR U
T re
SOME THING</w>
S ON
S IN
O ld</w>
M is
K evin</w>
H ome</w>
H U
EV EN</w>
D ead</w>
z es</w>
wn s</w>
wi shes</w>
wea k</w>
w u
un fortunately</w>
u se
tri p</w>
t wi
superi or</w>
speci fic</w>
s ent
s at
regar ding</w>
r ate</w>
priv ate</w>
pos ses
pic s</w>
p ool</w>
on der</w>
n n
mes senger</w>
mem bers</w>
m all</w>
la id</w>
ke tball</w>
ir a</w>
g y
ester day</w>
cha se</w>
c tions</w>
be yond</w>
be l</w>
bath room</w>
ang ers</w>
ad ul
Th ough</w>
Spe ars</w>
Ro ses</w>
R E</w>
Pe ter</w>
P ut</w>
N ice</w>
M ur
K el
J un
Fu ll</w>
Every thing</w>
E specially</w>
B ush</w>
B and</w>
2 3</w>
tic kets</w>
st ant</w>
sha ke</w>
sel fish</w>
se em
ru b
ri di
requ est</w>
pr oud</w>
pa in
op po
on ed</w>
o be
medi a</w>
l ling</w>
l er
l ack</w>
je ans</w>
ins ane</w>
i ld</w>
e acho
da ily</w>
commit ted</w>
bu s</w>
blon des</w>
bed room</w>
bal d</w>
as pe
adver ti
activ ities</w>
ac her</w>
Un der
U 2</w>
St u
SHI P</w>
O ther</w>
N one</w>
N T</w>
M ary</w>
Lea ve</w>
L ou
L D
Hon ey</w>
For get</w>
E bay</w>
Clu b</w>
COM E</w>
A ge</w>
A fri
A GE</w>
9 9</w>
. and</w>
www. limewire.com</w>
tre ated</w>
to il
soa p</w>
so o</w>
ri ddle</w>
respe ct
reco gni
pu tting</w>
per ver
p- hop</w>
mul ti
m ic
ing ly</w>
inf atu
in quire</w>
in correct</w>
idi o
hea d
g al</w>
featu res</w>
f lat
f ill</w>
es ca
e ma
cred it</w>
cat eg
canc el
bo ther
ben ef
bal ls</w>
assi stance</w>
as on</w>
acqu ain
ac king</w>
WH ERE</w>
TAL K</w>
Ob viously</w>
Mari ah</w>
Go d
F li
EAR S</w>
Car ey</w>
C ent</w>
C ali
Any thing</w>
A maz
. COM</w>
val ue</w>
t or</w>
shar ing</w>
s na
rec ent</w>
re por
r ay</w>
p oo
p m</w>
no v
no n</w>
mp 3</w>
ma s
ma r</w>
inse cure</w>
hi ding</w>
h ou
gra phi
friend ly</w>
feat uring</w>
exc ep
ear lier</w>
dis h</w>
dev el
deep ly</w>
cor ding</w>
che e
c in
bu ddy</w>
b lame</w>
ani mals</w>
al terna
YO NE</w>
With out</w>
T exas</w>
Sp ace</w>
Pre tty</w>
P ick</w>
MO VI
Hon estly</w>
H el
GO ING</w>
G ar
F re
Be yonce</w>
1 -
' em</w>
yy yy
y in</w>
we al
vil le</w>
vi sit
ur day</w>
t one</w>
st ood</w>
soci al</w>
ser ve</w>
sele ction</w>
rep lied</w>
quo te</w>
or al</w>
mu t
lo vely</w>
li ved</w>
lar y</w>
frigh ten
er t</w>
er ed</w>
en a</w>
d ele
con c
c ook</w>
ba g</w>
b itch</w>
az aa</w>
ac tive</w>
ac count</w>
Y ING</w>
W ho
Th ree</w>
Se con
S k
R yan</w>
N ar
K ate</w>
I L</w>
HEL P</w>
H as</w>
C ur
C hoo
BE EN</w>
B lue</w>
A li
3 5</w>
year -
y esterday</w>
wi e</w>
ty -
trav el</w>
toil et</w>
tel ephone</w>
t .
stre ss</w>
so oner</w>
resul t</w>
r ite</w>
pro gra
p in
oppo site</w>
ment al</w>
mar rying</w>
maj or</w>
loo kin</w>
ir able</w>
im my</w>
il la</w>
id k</w>
ha ted</w>
guil ty</w>
go l
entertain ment</w>
download ing</w>
con tain
con su
chi cks</w>
be st
al coho
V an</w>
T unes</w>
S tr
S pi
Me tallica</w>
M S</w>
Lo st</w>
I .
FEE L</w>
D ER
C r
B EA
AC E</w>
wa r</w>
ven ge</w>
v or</w>
tur ning</w>
th m</w>
t our</w>
t ext</w>
t at
stat ement</w>
sp ice</w>
s mar
requi red</w>
pi zza</w>
out come</w>
opin ions</w>
m ach
low ly</w>
ir t</w>
h ers</w>
goo gle.com</w>
gentle men</w>
funni est</w>
es ti
dang erous</w>
communic ate</w>
cen tr
b ird</w>
an ds</w>
V ir
Tu pac</w>
St re
S y
RELA TION
P itt</w>
O therwise</w>
M ES</w>
Lin kin</w>
FRIEN DS</w>
D C</w>
B loo
7 0</w>
2 .
th i
t ask</w>
st eal</w>
sm ells</w>
scre w</w>
ra ppers</w>
pu ts</w>
pro stitu
per c
p en</w>
on na</w>
on ic</w>
num bers</w>
mis sion</w>
mil li
le tters</w>
lar ly</w>
jer ks</w>
is ed</w>
inno cent</w>
in sul
imd b.com</w>
hor ror</w>
fan ta
er ing</w>
en e
eacho ther</w>
du ct</w>
comp lic
comm ent</w>
clo ser</w>
c ried</w>
bu tton</w>
brea st</w>
brea king</w>
b or</w>
aa aa
St eve</w>
Phi l</w>
P ur
O H</w>
Li ve</w>
K ar
HA HA
B atman</w>
7 th</w>
3 rd</w>
3 .
1 4
/ she</w>
.. I</w>
** *</w>
who ever</w>
w rest
un g</w>
tal kin</w>
sp ir
sof tw
ref rain</w>
possi bility</w>
p il
on .com</w>
n ick
ki es</w>
k en
in ese</w>
hu bby</w>
gi c</w>
flow er</w>
fin al</w>
fic ial</w>
ex per
ev ents</w>
di g
de mon
car ed</w>
c ore</w>
becu ase</w>
bas ketball</w>
ar re
act ual</w>
Un ited</w>
TH A
ST A
SA ME</w>
S am
OU S</w>
MU SI
M iss</w>
L ING</w>
J im</w>
J erry</w>
Hear t</w>
ER I
ANY THING</w>
2 4
ya sha</w>
wh i
un aware</w>
ti ous</w>
su it</w>
satis f
re lease</w>
prof ession
par is</w>
n y
mes sa
mem ber
l ab
kis ses</w>
kil ls</w>
j un
im possible</w>
id enti
id en</w>
hon esty</w>
hi p-hop</w>
fa ve</w>
fa ster</w>
e du
differ ently</w>
di sp
di am
di a</w>
depen ding</w>
cul ous</w>
chri st
beli ve</w>
a do
W an</w>
Re gar
N ick</w>
M ex
H EA
FU L</w>
E v
D um
Choo se</w>
Cali fornia</w>
C an
Bea u
B lon
1 5
year- old</w>
y ep</w>
tw el
tri ck</w>
ti ght</w>
te e</w>
te ach</w>
su m</w>
sig n
sea sons</w>
sa l</w>
ru les</w>
qu een</w>
orgas m</w>
nic ely</w>
nerv ous</w>
mi xed</w>
loy al</w>
lea ves</w>
k i</w>
ir re
interest s</w>
il es</w>
ignor ant</w>
igh t
i i
i an</w>
i Tunes</w>
happ iness</w>
gur l</w>
gh ty</w>
em ber</w>
ea ble</w>
downlo ads</w>
d ent
cor n</w>
cle an
ci ous</w>
br o</w>
b ag
az lyrics.com</w>
au th
any time</w>
an n
V ery</w>
Th ings</w>
Rom ance</w>
Mad onna</w>
M ore</w>
Lo l</w>
G uns</w>
D addy</w>
CK S</w>
CH AN
Bil lie</w>
1 3
1 .</w>
z a</w>
you ll</w>
w all</w>
under wear</w>
t ney</w>
stron ger</w>
str um
spac e.com</w>
sc en
re venge</w>
re move</w>
rac ist</w>
pro per</w>
pi ano</w>
perfor ming</w>
parti cip
pa ying</w>
l ately</w>
it ely</w>
ig n</w>
i mage</w>
hur ting</w>
ho ping</w>
ell a</w>
e ing</w>
dou ble</w>
dis covered</w>
diffic ul
di c
dd en</w>
com par
bu d
believ ed</w>
b on
ar m</w>
af fec
ac ross</w>
Y EARS</w>
THA TS</w>
T .
Some thing</w>
S in
S il
S ea
S .
OOOO OOOO
M ine</w>
L ed</w>
I ce</w>
H en
G ER</w>
En joy</w>
E yed</w>
D D
Bo y
. it</w>
y r</w>
vo cal
ver s
un fortunate</w>
ul ti
tt es</w>
thre w</w>
su rely</w>
str anger</w>
sto res</w>
stal ker</w>
sp l
soo oo</w>
see king</w>
s lowly</w>
prote ction</w>
per fec
part ners</w>
p ir
p .
om g</w>
o d
mu sc
mo der
mm mm</w>
m i</w>
lo ss</w>
le st</w>
im prove</w>
hum p</w>
he /she</w>
graphi c</w>
g her</w>
fa ils</w>
el le</w>
di stance</w>
dev il</w>
ca go</w>
c l
beg an</w>
as y</w>
as soci
ar ms</w>
an e
acc ur
Valent ine</w>
Scar y</w>
S la
S HOW</w>
P eas</w>
N irvana</w>
Mo m</w>
MB ER</w>
M ountain</w>
Hil ary</w>
GIR LS</w>
G er
CH E
Be sides</w>
Al l
2 8</w>
18 2</w>
** **</w>
wa ited</w>
w et</w>
un till</w>
u yasha</w>
tun es</w>
t ent</w>
sug ar</w>
softw are</w>
sh allow</w>
sel y</w>
s mal
ran dom</w>
pur pose</w>
p a</w>
occu r</w>
mista kes</w>
li br
l ers</w>
kin s</w>
ir rit
inst ant</w>
hun dre
ho tt</w>
h mm</w>
gu ar
gen der</w>
ge ous</w>
fre sh</w>
fin gers</w>
et ly</w>
download ed</w>
dol lar</w>
conne ction</w>
complic ated</w>
cla im
char ge</w>
c y
bo x
be ats</w>
assi st</w>
ali a</w>
Z Z
X -
WR ONG</w>
V H
Sc hool</w>
ST O
S pr
R ol
Pr ince</w>
Nic ole</w>
M ANY</w>
K no
J an
HA D</w>
DO WN</w>
Consi der</w>
C E
B S</w>
A bout</w>
you tu
w ears</w>
u t
tru ck</w>
ther ine</w>
ter ms</w>
sugges tions</w>
ster e
sour ce</w>
so lo</w>
smo ke</w>
si e</w>
s her</w>
s ac
re pu
purcha sed</w>
proc ess</w>
p at
or us</w>
on a
mar k</w>
m ite</w>
ke ys</w>
ke back</w>
k not</w>
k elly</w>
j o</w>
j a</w>
intellig ence</w>
im mature</w>
hin ts</w>
g ang
experienc es</w>
every time</w>
e h</w>
e Bay</w>
dre ssed</w>
di g</w>
d le</w>
d at
car ds</w>
bra ins</w>
b ling</w>
aw some</w>
alcoho l</w>
WOR K</w>
S ug
RELATION SHIP</w>
Mo on</w>
L as</w>
Ke ith</w>
H ou
H a</w>
D EA
Cra zy</w>
C ro
Brea k</w>
2 6</w>
19 6
wi er
w ind</w>
w hat
w are</w>
sta tions</w>
st ates</w>
sm ack</w>
sin c
satis fied</w>
resul ts</w>
re late</w>
qu ar
no tes</w>
mi e</w>
ma il
le ep</w>
le e</w>
la w
je cts</w>
j es
it us</w>
it ted</w>
in strum
in appropriate</w>
hi l
hear t
haha ha</w>
h o</w>
h mmm</w>
h int</w>
guit ari
gu y
exp lo
exi sts</w>
es it
em ents</w>
dr ag
des irable</w>
de f
confu sing</w>
ch a</w>
ca m</w>
bu ild</w>
b om
ac hi
ac hes</w>
abu se</w>
W ant</w>
W S</w>
Ther efore</w>
THIN GS</w>
St ar
S no
R ead</w>
P ear
N A</w>
L on
Indi an</w>
IM D
EV ERY</w>
Dol ls</w>
B ob
B en
2 .</w>
w ut</w>
thir teen</w>
th ick</w>
te mber</w>
sw ear</w>
suc c
stur b
st ances</w>
sli ghtly</w>
sle pt</w>
se ment</w>
se at</w>
scre am</w>
sa ke</w>
s is</w>
s ar
reas on
promis cu
pri son</w>
pre pared</w>
po sted</w>
off ice</w>
musi c
me at</w>
li day</w>
lan do</w>
har ry</w>
gener ally</w>
fashi on</w>
effec tive</w>
e ther</w>
dra g</w>
disappo inted</w>
d ea
cr it
comm it</w>
ch y</w>
ch .com</w>
ca sh</w>
believ es</w>
b age</w>
as k
an ti
amp ire</w>
am i</w>
alterna tive</w>
al d</w>
ac quire</w>
T or
T e
STI LL</w>
S um
RO CK</w>
P anic</w>
MARRI ED</w>
M EA
L y
K ids</w>
IN TER
H ELL</w>
F our</w>
F ire</w>
Every body</w>
EVER Y
Dre am</w>
Defin itely</w>
C ool</w>
B on</w>
Al bum</w>
5 .
.. and</w>
. net</w>
. lol</w>
ya h</w>
watch es</w>
un usual</w>
tru ely</w>
star ing</w>
sinc ere</w>
s have</w>
s /
s -</w>
ro o
ridi culous</w>
responsi ble</w>
r ated</w>
pre di
porno graphy</w>
po tter</w>
pl es</w>
p us
p ack</w>
over ly</w>
or able</w>
non -
musici ans</w>
li a</w>
la tion</w>
l eng
kil ling</w>
it unes</w>
incredi ble</w>
in to
her o</w>
har d
gro wing</w>
f its</w>
ev es</w>
emp t</w>
e z</w>
dis c</w>
di ck</w>
d say</w>
con dom</w>
clear ly</w>
ca mer
bu cks</w>
bel eive</w>
ban g</w>
az z</w>
ar ently</w>
appro ve</w>
am ong</w>
W AN
V O
T rue</w>
T it
T U
Swe et</w>
Stre et</w>
STU P
STUP ID</w>
S cor
O pra
NO THING</w>
N um
N et
MOVI E</w>
M ic
Kel lie</w>
J ay</w>
H om
Gr ace</w>
G il
Ch em
C er
C al
AF TER</w>
5 0
3 0
. I.
y up</w>
w ine</w>
v in
v i</w>
un comfortable</w>
u ro
tw ins</w>
tr ad
su n</w>
sm oo
sla p</w>
six teen</w>
s outh</w>
s oul
s no
r ough</w>
r er
pur su
pres sure</w>
pla stic</w>
pic k
perfec tly</w>
pe z</w>
occa sion</w>
ma ster</w>
lo s</w>
laugh ed</w>
is a</w>
inf lu
ha m</w>
gor geous</w>
g gy</w>
fe min
est e
deter mine</w>
d el
cro w
con sequ
comp li
co itus</w>
ch o</w>
ber t</w>
attemp ted</w>
atri ck</w>
ari us</w>
any e</w>
ang el
ag ing</w>
after wards</w>
af ford</w>
a .
Y A
W O</w>
W HI
SE X
S eri
Qu es
Opra h</w>
O ver</w>
LO W</w>
In form</w>
Ha ving</w>
H or
G R
Fri day</w>
F rench</w>
E ver</w>
Chem ical</w>
C i
B ruce</w>
B lu
B RO
B AND</w>
Att empt</w>
wh is
typic al</w>
ti cket</w>
th o
te acher</w>
t .com</w>
sur vi
sta ying</w>
s sing</w>
regu lar</w>
re make</w>
r ings</w>
pro per
po ten
pic king</w>
pain ful</w>
oper a</w>
mir ror</w>
mat h</w>
lo ween</w>
lo vers</w>
li gh
it self</w>
it ..</w>
idio ts</w>
h esit
good ness</w>
g host</w>
fi de
fide lity</w>
fantas y</w>
et al</w>
en day</w>
en courage</w>
du mped</w>
d y
comp ani
com b
categ ory</w>
ca uses</w>
bi es</w>
b ite</w>
b ac
acci dent</w>
` s</w>
W ar
V o
V ING</w>
St ates</w>
Sp anish</w>
STO P</w>
S ho
S C
P us
P ic
LI ST
K NO
K EEP</w>
J on</w>
Hol lywood</w>
HHHH HHHH
H ill</w>
H er
E ST</w>
D irty</w>
Bro thers</w>
An yone</w>
An gel</w>
A v
4 5</w>
1 /
z z</w>
y n</w>
w olf</w>
vie wed</w>
vari ety</w>
twel ve</w>
tran s
to ys</w>
to y</w>
the tic</w>
th u
th ri
suff ici
su ally</w>
str ong
stom ach</w>
st le</w>
st ead</w>
sm ith</w>
si r</w>
sen ding</w>
seem ed</w>
s at</w>
ro oms</w>
restaur ant</w>
p knot</w>
ni ght
musici an</w>
mp a
mar y</w>
m in</w>
le an</w>
lat est</w>
it ty</w>
is m</w>
im p</w>
i de</w>
hor ny</w>
hea ven</w>
ex act</w>
este em</w>
equ al</w>
ent it
d ry</w>
d .com</w>
cour t</w>
conv ince</w>
comp an
co sts</w>
ben e
ag e
act ory</w>
Y ep</w>
Y ea</w>
Sim on</w>
P R
M r</w>
J ason</w>
Ho pefully</w>
HAR D</w>
D ou
Coun try</w>
C lick</w>
B LE
Ar ti
A ct</w>
y ea
y ..</w>
x ing</w>
wel come</w>
ti ps</w>
stri p</w>
se tting</w>
s ou
qu e
prote ct</w>
pro of</w>
plan et</w>
pe op
pe lin</w>
par ent</w>
p ha
obe se</w>
o s
necess arily</w>
multi ple</w>
ma y
ma mma</w>
m id</w>
lo a
libr ary</w>
lea ds</w>
k ira</w>
j ack</w>
indi c
incredi bly</w>
inc i</w>
hundre d</w>
hi ll</w>
get tin</w>
ge ek</w>
g als</w>
fav our
f ra
en ge</w>
eg g</w>
drum s</w>
dre sses</w>
depres sed</w>
compan ion</w>
comp are</w>
be .com</w>
b 4</w>
ar ou
adv ant
Wil li
V ES</w>
TH AN</w>
Sa me</w>
S ar
S am</w>
R ose</w>
P lay</w>
MA Y
Loo ks</w>
L ad
H aw
F F
BE F
Ad am</w>
AL SO</w>
A sian</w>
z er</w>
win ner</w>
wa sting</w>
v el
use ful</w>
ur t</w>
u ps</w>
u k</w>
th od</w>
strong ly</w>
st es</w>
soun ded</w>
sc ale</w>
rum or</w>
ri p</w>
ri f
ref le
recor ded</w>
qu alities</w>
pi o</w>
p on</w>
o wn
mut ual</w>
messa ges</w>
ma x</w>
lli ant</w>
ke y
ke t
in y</w>
id eal</w>
h eight</w>
genu ine</w>
ex pla
ex pl
er e
ep pelin</w>
dd en
d are</w>
ck in</w>
carto ons</w>
c c
bu b
b ru
b ars</w>
app ly</w>
ac ted</w>
a di
Y an
T hi
Sun day</w>
Sat urday</w>
ST AR
S SI
Pear l</w>
PU T</w>
OU R</w>
ON S</w>
Na me</w>
N elly</w>
Mar k</w>
Mar ch</w>
MA Y</w>
M etal</w>
LA ST</w>
L A</w>
K id</w>
J apanese</w>
Hea ven</w>
F REE</w>
El liot</w>
Ed die</w>
E pi
D ance</w>
C OU
C HA
BEF ORE</w>
BE LI
y ne</w>
y all</w>
wier d</w>
un pleasant</w>
un certain</w>
u .</w>
tr ain</w>
th ful</w>
tab s</w>
t le</w>
sta yed</w>
spe e
som thing</w>
sho wed</w>
sho w
secon ds</w>
se es</w>
ric ks</w>
respect ful</w>
religi on</w>
re fu
provi ded</w>
promiscu ous</w>
pre ten
pe e</w>
parti es</w>
p tion</w>
p et</w>
ou tta</w>
or g</w>
my space.com</w>
min ded</w>
ment ally</w>
mem ory</w>
m ichael</w>
lo l
lim ited</w>
l en
into xic
ing ton</w>
ing ing</w>
in -
ic ked</w>
g an</w>
g a</w>
fi gu
f ancy</w>
com pla
brune tte</w>
bro ad
att le</w>
W onder</w>
W at
W ERE</w>
Regar dless</w>
N i
Mon ey</w>
Mar tin</w>
MUSI C</w>
MEA N</w>
L isa</w>
L a</w>
J am</w>
Fli r
E asy</w>
Clar kson</w>
Bob by</w>
BO Y
A t
A le
6 th</w>
2 7</w>
y ell</w>
x ious</w>
w o
vie wing</w>
u to</w>
tou ching</w>
ta tions</w>
sy stem</w>
st ories</w>
st are</w>
sion ally</w>
sin s</w>
si ble</w>
sha pe</w>
roman tically</w>
recogni ze</w>
re search</w>
r at
r ar
pro b</w>
play ers</w>
pa thetic</w>
p lot</w>
n ur
mu m</w>
mista ken</w>
mas sage</w>
li me</w>
lev ant</w>
lear ning</w>
k ward</w>
intro duce</w>
inc ess</w>
hh h</w>
guar an
gra du
gra b</w>
fr on</w>
fl at</w>
edu cation</w>
con clu
comm ents</w>
com ics</w>
clo set</w>
circum stances</w>
c ruise</w>
bri lliant</w>
boo ty</w>
bi o
an ta</w>
ad a</w>
Z ac</w>
Y a
We dding</w>
U sher</w>
T UR
S ti
P EN
O '
MI GHT</w>
L ES</w>
K now</w>
K il
I ron</w>
H mm</w>
GA IN</w>
G ri
EA CH</w>
Com p
C ho
C RA
B OR
2 -
.. lol</w>
' mon</w>
' RE</w>
wor l
well -
wea ther</w>
u u
ti ves</w>
thr u</w>
t att
sy cat</w>
su sp
st y
spl it</w>
s ki
s and
s ..
ru b</w>
reg ga
re member
ra pe</w>
pur ple</w>
plac ed</w>
pi e</w>
ph ones</w>
p ack
off ici
na u
mi d
magaz ines</w>
lo ve
li ties</w>
le tting</w>
ke e</w>
k o
k n
is tic</w>
is es</w>
in qu
in fidelity</w>
hur ry</w>
hun g</w>
ho tter</w>
hi pp
g as
fa il</w>
entit led</w>
el se
el eph
dri ves</w>
de stin
cr ack</w>
communic ation</w>
co wboy</w>
chri stian</w>
chil d
chang es</w>
c he</w>
c able</w>
be an</w>
b t
an o
a de</w>
US A</w>
TI MES</w>
T on
Simp sons</w>
Se an</w>
S han
S ep
Ra p</w>
N at
My space</w>
MAY BE</w>
MA TTER</w>
M al
LU CK</w>
Jo vi</w>
H UR
G ol
Fri end</w>
E a
E VE</w>
Do g</w>
De ath</w>
D an</w>
Bri an</w>
Answ ers</w>
6 -
' LL</w>
win ning</w>
weal thy</w>
ur y</w>
u h</w>
trac ks</w>
thin g
they re</w>
th irty</w>
th an
solu tion</w>
sin cer
ro g
re mind</w>
re fer</w>
re action</w>
pri or</w>
particu larly</w>
oo m</w>
nu ts</w>
na h</w>
n son</w>
n in
min i
mach ine</w>
m ani
lin ed</w>
jo bs</w>
is land</w>
in du
hoo ked</w>
har dly</w>
h eal</w>
good bye</w>
gg ed</w>
ge e
expe cted</w>
en sive</w>
e li
dre aming</w>
dis a</w>
di stur
den y</w>
counsel ing</w>
cou ples</w>
continu es</w>
beg ins</w>
be g</w>
b son</w>
adv ent
ac ked</w>
ac cording</w>
ab t</w>
U r
U m</w>
TRU E</w>
Secon d</w>
S ex
R us
P ho
N either</w>
MON EY</w>
Ka tie</w>
In stead</w>
Hil lary</w>
H ead</w>
Exc use</w>
E yes</w>
Dar k</w>
Da ys</w>
Cer tainly</w>
C lo
C Ds</w>
Afri can</w>
A qu
A gain</w>
5 '
4 .
19 80</w>
. you</w>
wonder ed</w>
we ed</w>
vo lu
under stood</w>
um mm</w>
typic ally</w>
tr ail
the ater</w>
ta stes</w>
t ..</w>
succ ess</w>
st ry</w>
sp ring</w>
some day</w>
se l</w>
rhy thm</w>
recor ding</w>
re mix</w>
ques tion
profession al</w>
poli te</w>
photo s</w>
pas sion</w>
p ts</w>
p ounds</w>
o es</w>
n ar
moder n</w>
ma id</w>
ma gic</w>
m at</w>
li ke
ki d
joh nny</w>
it a</w>
inten ded</w>
in tend</w>
in ely</w>
guitari st</w>
gre w</w>
go sh</w>
g g</w>
flir ts</w>
f low</w>
f le
en coun
eleph ant</w>
du ck</w>
direc tor</w>
des pite</w>
der ing</w>
comp act</w>
cli p</w>
ci al</w>
christ mas</w>
chall enge</w>
c ats</w>
c and
bar ely</w>
at en</w>
as leep</w>
ac he</w>
ab bit</w>
a qu
WI TH
TR UST</w>
T al
Simp le</w>
S har
S OR
S IT
S CH
O l
MO VE</w>
M r
I CE</w>
HAPP Y</w>
H ERE</w>
G wen</w>
G ro
F unny</w>
F ir
D amn</w>
C as
C ALL</w>
Bu cky</w>
Arti st</w>
Al right</w>
A l</w>
A M
A .
' I</w>
z a
youtu be.com</w>
w itch</w>
v s</w>
v an</w>
un ion</w>
th t</w>
th ous
sw im</w>
super man</w>
steri ous</w>
st able</w>
spe ed</w>
smar ter</w>
si es</w>
si dent</w>
s pre
s kills</w>
s ers</w>
por tra
oo o</w>
ner ves</w>
neigh bor</w>
mor on</w>
ma tic</w>
m ers</w>
m acy</w>
la ws</w>
la bel</w>
joh n</w>
inclu ded</w>
in k
in ger</w>
hus bands</w>
hi gher</w>
gla ss</w>
gar bage</w>
frea ky</w>
frea ks</w>
foo tball</w>
fe ed</w>
experienc ing</w>
ex tent</w>
es sed</w>
enc y</w>
eg gs</w>
dri ver</w>
dden ly</w>
d ness</w>
conne ct</w>
con test</w>
chi e</w>
cap able</w>
camer a</w>
ca s</w>
buil ding</w>
br and</w>
b right</w>
at least</w>
as ha
ap er</w>
an ni
an i</w>
al lows</w>
accur ate</w>
accomp lish</w>
a de
T .I</w>
ST ER</w>
Ra dio</w>
REA DY</w>
P unk</w>
P atrick</w>
O FF</w>
N ick
HEAR T</w>
Go ing</w>
G -
F em
Epi so
EL SE</w>
E ric</w>
Ci ara</w>
B LE</w>
AC T</w>
A WAY</w>
vac ation</w>
ty ping</w>
ter ri
teenag er</w>
swee tie</w>
sp ital</w>
sp anish</w>
so ld</w>
sm iling</w>
sh ine</w>
ser t</w>
s ale</w>
recor ds</w>
rea se</w>
re -
rar ely</w>
r ange</w>
per spe
oo s</w>
ma sturb
leg ally</w>
la tions</w>
k ne
ju mped</w>
i fy</w>
heal thy</w>
he e</w>
happ ier</w>
h t</w>
grou ps</w>
gra ph</w>
go als</w>
genu inely</w>
g am
for th</w>
f rench</w>
ev a</w>
esca pe</w>
en der</w>
emo tionally</w>
ee ee
e ..
drum mer</w>
do se</w>
cur ity</w>
commerci als</w>
com plain</w>
com pati
co -
charac ter
ch er
b its</w>
aw kward</w>
aspe ct</w>
am p</w>
am ed</w>
a side</w>
Y EA
V er
U sually</w>
Tom my</w>
TT LE</w>
Sa w</w>
SP E
SCH OOL</w>
Rob ert</w>
P h
P ep
O per
O WN</w>
N ight</w>
MP 3</w>
M other</w>
K IN
K ED</w>
Ju ly</w>
H OM
Ga me</w>
G RE
Fir stly</w>
F O
D ad</w>
Chi cago</w>
Char lie</w>
Ca use</w>
Bu b
BO DY</w>
Ab solu
AR OUND</w>
AB C</w>
A GAIN</w>
8 0s</w>
3 -
2 9</w>
y p
wor k
wh ore</w>
tru st
the art</w>
ter y</w>
t is</w>
t es
stere o
situ ations</w>
seven teen</w>
se ttle</w>
scre aming</w>
ru ined</w>
ro bo
ri age</w>
re turned</w>
pres ents</w>
poin t
po or
po cket</w>
pis sed</w>
pi se</w>
pe ts</w>
net work</w>
nau ghty</w>
n is</w>
min i</w>
main ly</w>
m my</w>
log ical</w>
j en
home work</w>
har m</w>
hal f
gr ass</w>
frea kin</w>
fin an
fi red</w>
femin ine</w>
fal se</w>
et on</w>
erci se</w>
er al</w>
dra w</w>
des pise</w>
der ed</w>
dent ally</w>
de m</w>
cond oms</w>
co pi
chan n
ch u
car s</w>
c up</w>
c tr
bro w
brea ks</w>
br ought</w>
bom b</w>
bla h</w>
bel ong</w>
bel ly</w>
au dio</w>
au d
ag gre
a stro
` t</w>
WA T
Tur n</w>
St one</w>
Sp ice</w>
Si de</w>
R el
Po ssi
Or lando</w>
O ur</w>
N G</w>
HA TE</w>
H ard</w>
H OU
H ON
Good bye</w>
GU YS</w>
Ear th</w>
E SS</w>
Dr ag
D AN
C ash</w>
B on
B al
B L
AC /
9 2</w>
8 th</w>
4 th</w>
3 60</w>
yel ling</w>
uti lize</w>
u l</w>
tri bu
th on</w>
ter ed</w>
tea se</w>
tal ler</w>
t el</w>
swe at</w>
stri pper</w>
st one</w>
sle y</w>
shoul ders</w>
sho e</w>
sexu ality</w>
sent ence</w>
s ry</w>
ra in
pro pose</w>
pre f
poten tial</w>
po wer
per mission</w>
part ment</w>
ough ly</w>
open ing</w>
on a</w>
occa sionally</w>
o .
new sp
neigh bor
mo v
mil k</w>
mil es</w>
mail .com</w>
ma ster
m it</w>
lon g
li shed</w>
lesbi ans</w>
les sons</w>
inst ance</w>
inclu des</w>
il l
ici de</w>
i est</w>
i .
hou se
gen res</w>
g ging</w>
fre ind</w>
four th</w>
fil led</w>
em a</w>
eigh teen</w>
descri be</w>
demon str
dele te</w>
de te
d am</w>
claim s</w>
che ek</w>
che cking</w>
chang ing</w>
ch in</w>
bt w</w>
ba se</w>
b t</w>
assu ming</w>
ali ze</w>
advant age</w>
ach ing</w>
acc ess</w>
a sh
W .
U K</w>
T el
Sep tember</w>
Sea son</w>
ST AND</w>
S till</w>
S he
R ay</w>
R .</w>
Pla y
O ff
Lo ts</w>
LOV ES</w>
LOO KING</w>
L ar
L Y
J immy</w>
I ve</w>
HEAR D</w>
G one</w>
F ive</w>
E ST
Do wn
D ue</w>
D en
C LO
Bro ther</w>
B en</w>
B R
B C</w>
Au str
Al low</w>
A T
199 0</w>
. com
woo d
we l</w>
wa sted</w>
vo ices</w>
us s</w>
ti me
t v
sur g
sugges tion</w>
suffici ent</w>
str angers</w>
se tt
se ts</w>
scen es</w>
s che
pursu ing</w>
pro duce</w>
perspe ctive</w>
pa int</w>
op s</w>
ona ire</w>
ni ghts</w>
mo thers</w>
mat es</w>
make up</w>
m eal</w>
la un
it ar</w>
intoxic ated</w>
indi an</w>
hi ps</w>
he ter
favour ite</w>
fa iled</w>
ex clu
er to</w>
emo tion</w>
e ts</w>
dru g</w>
drin ks</w>
download .com</w>
dol ls</w>
direc tion</w>
di rect</w>
definit ion</w>
danc er</w>
com ic</w>
c ds</w>
but ts</w>
break fast</w>
bl ess</w>
bene ficial</w>
ba se
b ones</w>
b ell</w>
an gel</w>
adm ire</w>
acc ent</w>
a ff
Z eppelin</w>
YEA H</w>
W ere</w>
Re ally</w>
R ings</w>
R ea
P H
O s
K anye</w>
Jun e</w>
Fa vor
F UN
Episo de</w>
D A</w>
C ri
C ARE</w>
C AL
BE ING</w>
Ash ley</w>
A s
3 6</w>
3 .</w>
. 00</w>
viol ent</w>
val ent
stu ff
star ring</w>
st or
st eps</w>
son g
some thin</w>
si a</w>
ser ved</w>
run s</w>
rep lies</w>
re sses</w>
ra ise</w>
r ing
psy chi
proper ly</w>
pro lly</w>
pr o</w>
po w
particip ate</w>
pa ys</w>
p ure</w>
ou sy</w>
ou ch</w>
on ey</w>
o sco
no ise</w>
my sterious</w>
mur der</w>
me thod</w>
m ea
m c
m anga</w>
li t
leng th</w>
hea ded</w>
happ ily</w>
h en</w>
gy m</w>
fo c
fli es</w>
f s</w>
f o</w>
f art</w>
exi st
ex ercise</w>
evi e</w>
ev id
ent ity</w>
e ct</w>
e an</w>
dom in
diam ond</w>
cou ch</w>
consequ ences</w>
con trac
compati ble</w>
ck ey</w>
ci a</w>
chil dish</w>
chea per</w>
ca s
br ush</w>
bo dies</w>
beli ef</w>
ba be</w>
b b
att ached</w>
ari es</w>
app eal</w>
anc ing</w>
ab s</w>
a ir
a .com</w>
WOR LD</w>
WA IT</w>
V inci</w>
T ony</w>
Sno op</w>
Sar ah</w>
S par
S cre
Rol ling</w>
Ro ll</w>
Ro ad</w>
R eal</w>
R am
P oo
P an
P S
NA ME</w>
Mar riage</w>
Ma iden</w>
MIN D</w>
M UST</w>
M ENT</w>
Lo s</w>
Lo pez</w>
Lo han</w>
L ED</w>
Jes se</w>
Ja mie</w>
Indi a</w>
In uyasha</w>
In deed</w>
H am
Gu ess</w>
Go o</w>
E uro
D ear</w>
D ER</w>
Chi cken</w>
COM P
C ap
C ANT</w>
Bl ink</w>
BELI EVE</w>
B ul
B ir
B as
AN YONE</w>
AC/ DC</w>
A LOT</w>
A D</w>
A -
7 -
200 5</w>
1/ 2</w>
1 00
y l</w>
wor ker</w>
v ent
tw in</w>
teenag ers</w>
te book</w>
te a</w>
t ears</w>
sy n
suc ceed</w>
sto le</w>
sig ned</w>
sa ved</w>
s ev
rum ors</w>
responsi bility</w>
recei ving</w>
qu ery</w>
pul led</w>
progra ms</w>
pri ority</w>
po st
pl ans</w>
p in</w>
mp tion</w>
min or</w>
m ac
lo tte</w>
listen s</w>
lic ense</w>
li te</w>
la sts</w>
jo e</w>
je wel
j essica</w>
intro duc
inti macy</w>
im pre
il yn</w>
ic ks</w>
heter osexual</w>
heal th</w>
gr atu
go ld</w>
gen i
fel low</w>
enti es</w>
emin em</w>
ema ils</w>
du des</w>
dis ney</w>
difficul ty</w>
di o
contain s</w>
con front</w>
come di
clo sed</w>
clo se
c ing</w>
att ack</w>
an ny</w>
amaz on.com</w>
ag ent</w>
adul ts</w>
act u
a ired</w>
Y ears</w>
Wal mart</w>
Wa yne</w>
WITH OUT</w>
V ide
Ty pe</w>
T Y
Sp on
RE ME
R ory</w>
Possi bly</w>
Po p</w>
Mo ore</w>
M P</w>
M C</w>
LI VE</w>
K enny</w>
HO PE</w>
G host</w>
G AY</w>
F red</w>
F ol
F er
EE EE
DO ING</w>
Ch inese</w>
Car rie</w>
COM M
Bro keback</w>
B ack
Absolu tely</w>
A I
who s</w>
w oul
visit ing</w>
vi g
un happy</w>
un a</w>
ti sh</w>
ti m</w>
t i</w>
t an</w>
surg ery</w>
supp or
su pri
stu pi
spe ct</w>
sp am</w>
sol ved</w>
sm iles</w>
separ ate</w>
sear ched</w>
sche du
s p</w>
ri sh</w>
reje cted</w>
refer ence</w>
r s</w>
r ou
qui red</w>
pu ppy</w>
pro file</w>
pro duct</w>
pref ers</w>
posses sion</w>
pan ties</w>
ome o</w>
oc ean</w>
nu de</w>
mp 3
mom my</w>
mis er
m mar</w>
lo ad
life time</w>
l ler</w>
j ackson</w>
inv ited</w>
influ ence</w>
hor osco
ho spital</w>
go ssi
ge ment</w>
g ins</w>
g ar</w>
fli x</w>
equ ally</w>
ep tion</w>
en er
ele ct
ei ghts</w>
do o</w>
di sh
de m
d am
crow d</w>
cor ner</w>
coo l
concer ning</w>
compe tit
clu es</w>
ca used</w>
ca ses</w>
c her</w>
bu sh</w>
bra ve</w>
b ill</w>
b at</w>
aw ard</w>
adv ance</w>
ad orable</w>
act resses</w>
acquain ted</w>
ab and
^ _
Y E</w>
T im</w>
T RI
Sum mer</w>
St ones</w>
Sp end</w>
Sla yer</w>
SOR RY</w>
S el
S co
OU GHT</w>
Mu si
Mc Car
Man disa</w>
M ight</w>
Ly ric
LI E</w>
LE SS</w>
L yn
L ong</w>
Ka therine</w>
J ack
J E
IMD B</w>
Ho ly</w>
H ur
H an
Ge tting</w>
G ay</w>
Fo x</w>
Fin ally</w>
Dre ams</w>
D on</w>
D est
D ING</w>
Cu z</w>
Co de</w>
C in
B REA
B OO
.. it</w>
z ero</w>
y .
wor th
wh er
war s</w>
w ling</w>
v al</w>
v ag
v a
un cle</w>
ti p</w>
than x</w>
th ic</w>
ter n</w>
ter n
stat us</w>
stand ards</w>
sincer ely</w>
sa ving</w>
s sy</w>
rub ber</w>
ri ding</w>
requ est
r on
psy cho
poor ly</w>
pl at
p z</w>
p ity</w>
or din
oo oo</w>
ok .</w>
off ic
o sa
nic er</w>
ni ece</w>
mi es</w>
mes sing</w>
ly ric</w>
lo v
kic ks</w>
j ack
iti ons</w>
impres sed</w>
im pro
hi o</w>
hear ts</w>
haha haha
ha bit</w>
gre e
gr as
g gle</w>
frea king</w>
for gotten</w>
fol ks</w>
fi re
fi ance</w>
ff in</w>
feat ure</w>
fal ls</w>
fa me</w>
f aces</w>
emp ty</w>
else where</w>
dra wn</w>
do s</w>
do in</w>
de aling</w>
d or
cul ture</w>
conf ir
child hood</w>
cha tting</w>
cancel led</w>
c ease</w>
bra d</w>
br ings</w>
be y</w>
ba sic</w>
b ank</w>
atten ded</w>
arri ve</w>
anni vers
ali ke</w>
al o
abu sive</w>
V an
UR L</w>
To by</w>
T er
ST R
S po
R as
R ain</w>
Ques tion</w>
PRO BLE
Num ber</w>
My Space</w>
M el
Lu ke</w>
Lin dsay</w>
LIST EN</w>
LI TTLE</w>
I mag
Hal en</w>
H EY</w>
F ur
F at</w>
EN CE</w>
E I
Co le</w>
Ch an
C oo
B T
AB LE</w>
A po
A h</w>
5 00</w>
2 00</w>
y u
www. azlyrics.com</w>
wa it
viol ence</w>
ur ity</w>
ur a</w>
u ght</w>
tr unk</w>
thor ne</w>
the at
ten der</w>
te ens</w>
sy mpa
swee theart</w>
su s</w>
su ddenly</w>
stop s</w>
stal king</w>
so cks</w>
smal ler</w>
sil ent</w>
shoul der</w>
sc or
ri son</w>
ri l</w>
respon ded</w>
re min
re me
prostitu te</w>
pro posed</w>
pr on
po le</w>
plu g</w>
peop les</w>
pati ence</w>
pa ul</w>
p imp</w>
oooooooo oooooooo
on ds</w>
om bie</w>
offici al</w>
ob serve</w>
natur ally</w>
mp y</w>
mat ed</w>
m ou
li sh
ju mps</w>
j k</w>
j ac
it z</w>
in ci
ic ally</w>
i ge</w>
hi s
he hehe</w>
h itting</w>
gra mmar</w>
go al</w>
ge bob</w>
g ently</w>
fun ction</w>
free dom</w>
fli ck</w>
f on
f lying</w>
expe cting</w>
exist ence</w>
es c
enter ed</w>
el ed</w>
dru m</w>
do ll</w>
desi red</w>
dar n</w>
consi st
con centr
co lo
bow l</w>
bo ttle</w>
blo ck</w>
bear share</w>
b last</w>
b c</w>
as sure</w>
as sa
arre sted</w>
ar tic
ar ing</w>
ar gue</w>
a **</w>
Y o
Y el
Y A</w>
Willi ams</w>
W N
Un til</w>
Th ing</w>
T WO</w>
T T</w>
Sli m</w>
ST D</w>
S coo
S ab
S HO
Ro b</w>
REME MBER</w>
Pus sycat</w>
P ick
Mag ic</w>
M es
M AN
LEA VE</w>
K azaa</w>
IN E</w>
Ho p</w>
Hal loween</w>
H OO
Gil more</w>
G RA
FU N</w>
F antas
E le
DE PEN
Com ing</w>
C ome
C C
Br it
Bloo m</w>
B el
A m
9 9
5 -
/ or</w>
' nt</w>
you th</w>
y ard</w>
www. lyrics.com</w>
win dows</w>
w l</w>
w is
vir uses</w>
vir us</w>
vi sion</w>
v ul
v el</w>
uni or</w>
un like</w>
to es</w>
su icide</w>
sti cks</w>
sour ces</w>
sequ el</w>
s its</w>
s an
repor t</w>
ren ce</w>
religi ous</w>
reg ard</w>
ref use</w>
re ve
re turns</w>
qu est</w>
pres ence</w>
person s</w>
p y</w>
p 2
our ney</w>
om as</w>
ol ina</w>
ni c</w>
ne wer</w>
mom ents</w>
mo ther
mat urity</w>
ma tive</w>
m ouse</w>
m are</w>
lim it</w>
li p
lea ding</w>
k o</w>
ju mping</w>
j azz</w>
is ing</w>
insul t</w>
infatu ated</w>
ic o</w>
hot tie</w>
hom o
hesit ate</w>
he els</w>
hard core</w>
guit ar
guaran tee</w>
gratu lations</w>
go d
ge orge</w>
g l
fru it</w>
four teen</w>
en i
embarras sed</w>
e qui
e ds</w>
discus sing</w>
di d
der man</w>
d ys</w>
d in</w>
d ents</w>
d ances</w>
cor ny</w>
compli ment</w>
clas ses</w>
ca sian</w>
ca kes</w>
c on</w>
bag s</w>
ba st
b ound</w>
at ly</w>
arou sed</w>
amer ica</w>
al ed</w>
aggre ssive</w>
a h
Who a</w>
W ish</w>
W O
U s</w>
Tit anic</w>
T LY</w>
Sm ur
Sha kira</w>
Seri ously</w>
S oul</w>
Ro cky</w>
Or der</w>
Nar uto</w>
Mom ma</w>
McCar tney</w>
M ind</w>
M OR
Le o</w>
K orn</w>
K en
J er
Hoo pz</w>
H icks</w>
F ree</w>
F il
F R
E ve</w>
E li
E fron</w>
Des pite</w>
D ate</w>
Come dy</w>
C HO
Boy z</w>
Beau ty</w>
Be ach</w>
BO Y</w>
B ring</w>
B li
B ig
A i</w>
6 6</w>
5 th</w>
200 4</w>
2 3
x es</w>
wi de</w>
war t</w>
w ings</w>
v ey</w>
trust worthy</w>
tru thful</w>
tru sted</w>
trail er</w>
tr ain
to ward</w>
to ler
tatt oos</w>
tar get</w>
tal e</w>
ta ylor</w>
t ley</w>
sug ge
str ings</w>
soul mate</w>
shir ts</w>
scre wed</w>
sci ence</w>
sc ore</w>
sc hoo
resem ble</w>
re y</w>
re si
re act</w>
prom o
produc ed</w>
plea sed</w>
pi g</w>
or ing</w>
occur s</w>
occur red</w>
newsp aper</w>
na ils</w>
mon y</w>
mo b
miser able</w>
li p</w>
la ke</w>
ju ana</w>
inv esti
infatu ation</w>
indi a</w>
in ts</w>
in tre
il ar</w>
ick ey</w>
han na</w>
ha m
gu t</w>
gu ide</w>
gro wn</w>
g ang</w>
ex plan
es .
ele ctr
el ing</w>
du ction</w>
dri x</w>
do zen</w>
disc o</w>
cu stom
cri me</w>
conver se</w>
ci st</w>
che m
char ming</w>
boo ts</w>
bo thers</w>
ble w</w>
best friend</w>
benef its</w>
be ca
bab y
b our
at ed
ar rog
ar on</w>
appe ared</w>
an ne</w>
ali en</w>
al pha
accep ted</w>
ac company</w>
a sian</w>
Y ou
Y E
Ur ban</w>
U .
T een</w>
Su ch</w>
St ri
St ory</w>
SA ID</w>
S hi
S OUN
S ITE</w>
Rel a
Pe te</w>
Pe ace</w>
O SE</w>
Nor th</w>
MO M</w>
M ama</w>
Le ft</w>
L ine</w>
KI SS</w>
K ri
K im</w>
J U
IT Y</w>
I g
I MP
H US
Gu itar</w>
Fr ank</w>
EA T</w>
E mail</w>
D ra
D ick</w>
D eal</w>
D .
Cr ash</w>
Chi l
C au
Bub ba</w>
Bar ry</w>
B .
z o
yl an</w>
y thon</w>
w ich</w>
ver sions</w>
v an
v ampire</w>
under ne
underne ath</w>
ul k</w>
twi st</w>
the irs</w>
th ay</w>
tech no</w>
ta ught</w>
sw im
ster n</w>
spre ad</w>
spee ch</w>
sp ar
s by</w>
rer uns</w>
rema ins</w>
r k</w>
pron oun
prob ly</w>
pre sen
prac tic
poo p</w>
po steri
pi gs</w>
per fu
p unch</w>
p anic</w>
ori da</w>
on ny</w>
o -
no on</w>
ni pp
mem ories</w>
m ountain</w>
m oo
li ter
l ord</w>
l ace</w>
kil ler</w>
ki pe
k azaa</w>
jewel ry</w>
it able</w>
ir y</w>
inf eld</w>
inc lined</w>
in expensive</w>
in ds</w>
ic ans</w>
hu gs</w>
hot el</w>
ho liday</w>
ho e</w>
hh hh</w>
he at</w>
gu ard</w>
g uns</w>
fla sh</w>
fin ale</w>
fi shing</w>
fan i</w>
f old</w>
ea ses</w>
e yed</w>
do ors</w>
devel op
deter min
de stro
cr ash</w>
con te
com fort</w>
colle ction</w>
clo sing</w>
classi cal</w>
ci l</w>
choo sing</w>
cat chy</w>
ca tions</w>
ca mp</w>
bur ger</w>
bu tter
blu es</w>
benef it</w>
be yonce</w>
be e</w>
be c
be ac
b in</w>
b in
b ang
au tom
at ure</w>
app arently</w>
annivers ary</w>
and /or</w>
ad ded</w>
acquain t
ach el</w>
ab ama</w>
a tive</w>
a ka</w>
^_ ^</w>
WA L
W all</w>
V in
V ER
TH OUGHT</w>
T ru
T ro
T en
Sug ar</w>
Ste fani</w>
St evie</w>
Scor pio</w>
STAR T</w>
S wee
S up
S er
Po wer</w>
Pla yer</w>
P han
P en
P ac
P RI
O ut
NE X
N ER</w>
Mi ami</w>
Mex ican</w>
Lu cy</w>
La w</w>
L en
L .
K urt</w>
K ill</w>
K Y</w>
K A
Joh nson</w>
Jo sh</w>
Gi bson</w>
G ary</w>
Flir t</w>
F oo
F l
EVERY THING</w>
E mo</w>
E M</w>
D y
Char med</w>
C OUN
Blon de</w>
BT W</w>
BOY FRIEND</w>
B am</w>
Amaz on</w>
Al ba</w>
AN S</w>
A way</w>
A ries</w>
A TT
: 00</w>
1 1
. they</w>
z e
yel led</w>
x x
www. imdb.com</w>
wu d</w>
vide o
tr ay</w>
ta b</w>
t ones</w>
t at</w>
stu dy</w>
stu dio</w>
stri ke</w>
sta ys</w>
st un
st ren
speci fic
sp y</w>
sp an
soci ety</w>
simp son</w>
sho wn</w>
shar e.com</w>
se curity</w>
scri pt</w>
robo t</w>
reci proc
r o</w>
pro m</w>
pri de</w>
pas sion
p2 p</w>
p pe
over come</w>
out fit</w>
on e-
no thin</w>
no ld</w>
milli onaire</w>
mari juana</w>
main tain</w>
m un
lic ity</w>
li ghts</w>
li f
le on</w>
l ing
l acking</w>
jeal ousy</w>
instrum ent</w>
inst ru
in deed</w>
id entity</w>
ho b
g ly</w>
fu cking</w>
fru str
frighten ed</w>
fri day</w>
foo ls</w>
fi a</w>
featu red</w>
fe at</w>
fashi oned</w>
extre me</w>
et ings</w>
es y</w>
er c
en tr
emp lo
ea sed</w>
e go
du ff</w>
do sent</w>
des per
deci des</w>
consider ation</w>
con ven
co ps</w>
clo ck</w>
cl ever</w>
chem ical</w>
care fully</w>
bu tter</w>
bu ry</w>
bu ll</w>
bow ling</w>
bother ing</w>
bother ed</w>
bo tt
bir ds</w>
bi -
base ball</w>
b one</w>
b al</w>
at ors</w>
at om
associ ate</w>
asha med</w>
argu ment</w>
apologi es</w>
anc ed</w>
add itional</w>
ac e
a oke</w>
a k
a i
Yan kee</w>
Wh ether</w>
WAN TS</w>
W oo
US H</w>
TT ING</w>
T ar
T URE</w>
T -
Sp eak</w>
Se cre
S an</w>
P M</w>
O zzy</w>
O ff</w>
O c
NI GHT</w>
NEX T</w>
N apo
N a</w>
N BC</w>
MA IL</w>
Lon don</w>
LOO KS</w>
LI KES</w>
L T</w>
L EAR
KI DS</w>
Jo ey</w>
Ja y-
IN T</w>
I ON</w>
Hol mes</w>
Hel p</w>
HOM E</w>
H un
H mmm</w>
H im</w>
H ate</w>
H ad</w>
Gre enday</w>
G la
G ang
Favor ite</w>
F LI
Ex or
EN JO
E d</w>
Dis co</w>
DU H</w>
COM ES</w>
CHEA T</w>
CHE CK</w>
Bar ney</w>
B ang</w>
Answ er</w>
8 -
7 0
4 -
. he</w>
' cause</w>
you ve</w>
wal mart</w>
vari ous</w>
ur s</w>
ur in
thous and</w>
the aters</w>
ten ds</w>
teen age</w>
t ricks</w>
su me</w>
ssi ons</w>
spea ks</w>
some 1</w>
smoo th</w>
six th</w>
shor ter</w>
shoo ts</w>
sh ou
sa y
s per
s ence</w>
ro lling</w>
respon ds</w>
rema ining</w>
rela tion</w>
re n</w>
re moved</w>
pro gre
prefer red</w>
posit i
po em</w>
per su
p ted</w>
p al
origin ally</w>
ob se
o w
o tic</w>
no w
nick name</w>
na mite</w>
n ick</w>
mon o
mo tion</w>
mean ing
me ..</w>
mat u
lu m
lo ads</w>
lin t</w>
life style</w>
li via</w>
li pp
lea der</w>
le m</w>
laugh ter</w>
la p</w>
l ls</w>
k u
k ool</w>
itch en</w>
it ement</w>
inter view</w>
in tri
in ner</w>
impre ssive</w>
imp l
imag ination</w>
identi fy</w>
i am</w>
hun g
hum ans</w>
har m
grand mother</w>
grand ma</w>
gossi p</w>
goo fy</w>
gen it
g ru
frighten ing</w>
for ced</w>
fol lows</w>
fo x</w>
flu te</w>
figu red</w>
expe c
ex- boyfriend</w>
ex am
es ..</w>
eng aging</w>
dis ease</w>
der son</w>
de mo</w>
da vid</w>
d ..</w>
cru el</w>
cou sins</w>
conf ess</w>
competit ion</w>
cha ir</w>
ch orus</w>
cal i
ca de</w>
c les</w>
bu gs</w>
be atles</w>
b at
b -
arrog ant</w>
anno yed</w>
ani e</w>
an u</w>
an na</w>
all en</w>
af fect</w>
ade qu
addi ct</w>
ad er</w>
ab or
a pril</w>
YOU NG</w>
WW WW
UN DER
To p</w>
TH ERS</w>
TE LY</w>
T. V</w>
T wi
Sup er</w>
Sa ve</w>
S pen
S ci
S al
S L
S ING</w>
S HA
Ric hard</w>
R andy</w>
Po w
Pl an</w>
Phan tom</w>
Pau la</w>
P ER</w>
NI CE</w>
N ING</w>
N .
Lou ie</w>
K in
J ane</w>
Hou ston</w>
H it</w>
H ang</w>
Gr and
GU ESS</w>
G emin
G LE</w>
E at</w>
Dum b</w>
DEPEN DS</w>
Con tin
CK Y</w>
CA L</w>
C 'mon</w>
Ba sically</w>
B ren
B ear
B F</w>
A x
4 2</w>
3 3</w>
x ic</w>
wor rying</w>
we i
w oke</w>
vi gate</w>
ven ess</w>
ve hi
un limited</w>
un likely</w>
u ts</w>
tra ff
tr yin</w>
tor rent</w>
to e</w>
to -
ti cal</w>
ther n</w>
tech nic
t ane
sw itch</w>
spo on</w>
sp ort</w>
sli m</w>
sing les</w>
sh ington</w>
sel ling</w>
sel ess</w>
satis fy</w>
sa u
ri se</w>
ri s
reason able</w>
real istic</w>
rea ds</w>
re v
ra pping</w>
r are</w>
pr incess</w>
posit ions</w>
porno graphic</w>
point less</w>
p al</w>
off ensive</w>
off ended</w>
nic ole</w>
n ine
me tallica</w>
m r</w>
lou der</w>
law yer</w>
l led</w>
l is</w>
k itchen</w>
ju ice</w>
it .
ir mative</w>
introduc ed</w>
in ch</w>
il la
hung ry</w>
her o
ha w
h ..</w>
gre ater</w>
gr an
good -
gar e
fol lowed</w>
fil ling</w>
fi xed</w>
ff s</w>
fa st
f ed</w>
ev ed</w>
et to</w>
er n
el led</w>
el even</w>
el a</w>
effec ts</w>
ed ge</w>
e th
e ces</w>
e -</w>
du n</w>
dep p</w>
deci sions</w>
d .
comb ination</w>
close st</w>
ci gare
che er
canc er</w>
bud get</w>
brune ttes</w>
blo g</w>
bil ls</w>
back wards</w>
b es</w>
aw yer</w>
ate ful</w>
as kin</w>
ar eas</w>
angel ina</w>
achi eve</w>
acci dentally</w>
ac ou
a z</w>
Z Y</w>
Win dows</w>
Wh enever</w>
W ee
TH OUGH</w>
Sy stem</w>
SI DE</w>
S le
S ED</w>
R omeo</w>
Pl ace</w>
PRO BAB
PLA Y</w>
P al
ON CE</w>
Ne ed</w>
N U
MA DE</w>
M B</w>
M A</w>
LI TY</w>
L eg
L au
K ing
Ju d
Jay- Z</w>
J .
Hil ls</w>
HUR T</w>
Gemin i</w>
F an
F T</w>
EVER YONE</w>
Dep ending</w>
De f</w>
D ri
D R
Contin ue</w>
C andy</w>
C S</w>
C OR
C OOL</w>
C .
BAB Y</w>
B all</w>
Austr alia</w>
App ro
Any ways</w>
Angel es</w>
Al terna
AN OTHER</w>
AN I
A ff
A ero
A TION</w>
4 0
198 0s</w>
. the</w>
* t</w>
z ard</w>
x y
x ican</w>
w w</w>
w ore</w>
vir gins</w>
vi o
val u
v o</w>
v h
ulti mat
u ary</w>
tw enties</w>
tt ery</w>
ter min
tat too</w>
tal s</w>
t ory</w>
t an
sy m
stin ks</w>
ster y</w>
st ab
sor ta</w>
slu t</w>
sho ps</w>
sh ers</w>
sh ell</w>
self- esteem</w>
s and</w>
remember ed</w>
re union</w>
re sist</w>
re mo
re gi
psy cho</w>
perver ted</w>
pen cil</w>
pe er</w>
pas sing</w>
pack age</w>
p ound</w>
p ath</w>
or gi
op her</w>
on do
o ks</w>
no ..</w>
nes day</w>
mob ile</w>
mo tiv
mis ses</w>
me xican</w>
m strong</w>
m r.</w>
m ans</w>
li an</w>
la ying</w>
jes us</w>
j am
inten se</w>
in dependent</w>
im men
i. e</w>
ho sts</w>
ho pes</w>
his /her</w>
high est</w>
gu m</w>
gre en
gra v
g al
fr on
fr an
fif ty</w>
fic tion</w>
fi ghts</w>
fe e
f ea
f ate</w>
f **
exper t</w>
exi sted</w>
exc uses</w>
evid ence</w>
even ing</w>
esc ence</w>
en ing</w>
ef fect</w>
e ats</w>
duc ated</w>
du l
dish on
dis likes</w>
deli cious</w>
d ur
d ity</w>
d it
d ency</w>
cour ting</w>
consu me</w>
consider ate</w>
colo red</w>
co ck</w>
co at</w>
ck bu
chann els</w>
cau tious</w>
cau tion</w>
c ab
buil t</w>
bu mp</w>
bo o</w>
bo ar
bi ble</w>
atom y</w>
at tribu
at ra</w>
arri ved</w>
app o
an da</w>
agre ement</w>
agre ed</w>
ab ri
Y up</w>
WI SH</w>
W r
VH 1</w>
V E
TH R
TH ER
Stu pid</w>
St .</w>
Sco tt</w>
ST AY</w>
SS SS
SEX Y</w>
S it</w>
S awyer</w>
S OO
S N
Ro ck
Re g
R ich</w>
PROBAB LY</w>
N ine</w>
N ever
Mex ico</w>
Man son</w>
Ma ster</w>
Lu cas</w>
Loo king</w>
La dies</w>
LOV ED</w>
L o</w>
KIN D</w>
K ir
Jo el</w>
In v
I m
I '
He ck</w>
H E
G EN
F ool</w>
F al
Eng land</w>
Down load</w>
De c
DV Ds</w>
Co wboy</w>
Ch ances</w>
Cap tain</w>
C our
Beau tiful</w>
BEA U
AR I
A DV
8 0
6 5</w>
6 0
1 000</w>
z oo</w>
yel ls</w>
y i
x -
w re
vocal ist</w>
v egas</w>
ur ge</w>
tr age
to cks</w>
tion ary</w>
ti o</w>
ti ck
th um
th le
th ed</w>
t s
t man</w>
t ac
surpri sing</w>
spo ke</w>
sp it</w>
some how</w>
sho cked</w>
secre tly</w>
sc ares</w>
s n</w>
ri ght
restaur ants</w>
repu tation</w>
re place</w>
re ject</w>
r at</w>
r aces</w>
qu es</w>
produc ers</w>
pro po
phe us</w>
perver t</w>
person als</w>
per cent</w>
pa ste</w>
ordin ary</w>
op posed</w>
on -
ne west</w>
mo le
mm mmm</w>
may b</w>
le -
j us
j ames</w>
irre l</w>
inti mi
inten tion</w>
in put</w>
hor n</w>
hol lywood</w>
hi dden</w>
han gs</w>
ha mmer</w>
ha ired</w>
grand father</w>
goo se
go ds</w>
gla sses</w>
gent le</w>
geni us</w>
g un
g en</w>
fortun e</w>
fore ign</w>
fe st</w>
fair y</w>
expl ore</w>
er r
ent u
el der
easi est</w>
e ba
don key</w>
do g
differ ences</w>
di ot</w>
defin etly</w>
coo king</w>
coo kies</w>
contrac t</w>
consist ently</w>
confir m</w>
concer ts</w>
co .
clo wns</w>
cli max</w>
clean ing</w>
classi cs</w>
ci es</w>
che mi
cancel ed</w>
ca using</w>
c ell
bul let</w>
break up</w>
believ able</w>
bel ongs</w>
bear share.com</w>
be a
bas is</w>
b attle</w>
au di
atten ding</w>
appreci ated</w>
ap y</w>
ani mated</w>
and ler</w>
ali an</w>
adequ ate</w>
Y et</w>
Y ear</w>
WH O
WH ITE</w>
Vide o</w>
V in</w>
U mm</w>
To day</w>
Th ur
TH AN
Sti ck</w>
S qu
S ky</w>
S Y</w>
Re cor
R ep
PER SON
P. S</w>
P or
O O</w>
N ight
M am
M EN
Lad y</w>
K K
K IN</w>
K .</w>
J ac
I tal
H ES</w>
Gir l
G on</w>
G G
Fa ther</w>
FOR GET</w>
F un</w>
F ort</w>
F M</w>
E P</w>
E LY</w>
Do o</w>
Do gg</w>
DO WN
DA TE</w>
D ump</w>
D em
D ED</w>
Chil dren</w>
Chi li</w>
COU R
CON T
CHI LD</w>
C LU
Brit ish</w>
Blu es</w>
Be tter</w>
BO YS</w>
B unny</w>
B la
B ird</w>
B ell</w>
B an
App le</w>
Ang els</w>
Ale x</w>
Al abama</w>
AS S</w>
A live</w>
A G
4 3</w>
3 4</w>
200 0</w>
. that</w>
. its</w>
. if</w>
- year-old</w>
' The</w>
´ s</w>
za be
z ation</w>
y u</w>
ww w</w>
wrest ling</w>
worl ds</w>
way ne</w>
wa ve</w>
wa shed</w>
wa sh</w>
wa days</w>
w icked</w>
visit ed</w>
vi br
vehi cle</w>
vag ina</w>
uti li
ur us</w>
ul a</w>
u ll</w>
tu b</w>
to on</w>
ti re</w>
thir ty-
thin k
ther more</w>
theat re</w>
te m
tain ing</w>
tain ed</w>
tab les</w>
ta il</w>
t. v</w>
t exas</w>
t .</w>
suff er</w>
su spect</w>
ste in</w>
ste aling</w>
star red</w>
sta irs</w>
st ones</w>
ss a</w>
spo ken</w>
spo iled</w>
sn eak</w>
sn ea
ski p</w>
sign als</w>
si ck
she et</w>
sex ier</w>
s now</w>
s killed</w>
s day</w>
rev eal</w>
respon ses</w>
requi res</w>
repe ated
repeated ly</w>
reme ber</w>
regga e</w>
red neck</w>
ra ps</w>
ra ised</w>
r ry</w>
pu shing</w>
prefer able</w>
pre mi
pre h
pr int</w>
power ful</w>
por t</w>
po o</w>
po e
perfu me</w>
perfor ms</w>
perfor mer</w>
pe an
p ages</w>
ough out</w>
ou ts</w>
ol ine</w>
of course</w>
occu pi
ob ject</w>
ob je
nur se</w>
ner d</w>
na il</w>
mu s</w>
mon es</w>
mon d</w>
mo d
mm ed</w>
mic ro
mi c</w>
mes sy</w>
men u</w>
mar ket</w>
m tv</w>
loc ked</w>
lo sers</w>
lo g</w>
lipp ines</w>
li days</w>
l ma
k u</w>
it ..
inten tions</w>
inst re
ing ..</w>
in- law</w>
in et</w>
il a</w>
ic ious</w>
i z</w>
hun t</w>
hu n</w>
ho bby</w>
hi re</w>
hi e</w>
hhhh hhhh
h on</w>
gr ats</w>
go ver
gener ation</w>
g ust</w>
for mat</w>
for gi
fif th</w>
fami lies</w>
exc la
exc itement</w>
eph en</w>
ent ing</w>
en sure</w>
en ess</w>
e z
e sel</w>
dro ve</w>
dra matic</w>
diff rent</w>
di sor
deep er</w>
d irt</w>
d g
d ale</w>
cu ter</w>
cred its</w>
cra ppy</w>
contro lling</w>
conc ept</w>
colle ct</w>
co p</w>
chocol ates</w>
chi ll</w>
che esy</w>
chall eng
but tocks</w>
bul ous</w>
bud dies</w>
ble ed</w>
bl ings</w>
b oun
b bles</w>
b ate</w>
at ory</w>
aspe cts</w>
ail s</w>
abi lities</w>
a unt</w>
a tic</w>
a irs</w>
a fri
W et</w>
W ar</w>
W WE</w>
W AR
US ED</w>
Tu cker</w>
Tr an
Th omas</w>
Tal king</w>
T en</w>
Ste wart</w>
Sli pknot</w>
ST OR
S ir</w>
S anta</w>
S N</w>
S CAR
S .</w>
R un
R ad
Pu erto</w>
Pep pers</w>
P ython</w>
P .</w>
ON ES</w>
O pen</w>
O F
Nick el
Net work</w>
Me et</w>
Mar ilyn</w>
Ma king</w>
MM MM
MARRI AGE</w>
M ust</w>
M ad</w>
M ac
LY RI
LO ST</w>
L over</w>
Kno ck</w>
K at</w>
Ju lia</w>
J o</w>
J en</w>
J ee
I s
Hom er</w>
Ho ward</w>
HU GE</w>
HOU SE</w>
HA VING</w>
H old</w>
God smack</w>
GE TTING</w>
GE THER</w>
F ace</w>
ENJO Y</w>
E .
DI E</w>
DEA D</w>
D ylan</w>
D uck</w>
D evil</w>
D ancing</w>
Christ ina</w>
Chi ld</w>
Chan nel</w>
Ch orus</w>
CHAN GE</w>
C ry</w>
C old</w>
Bo x</w>
Back street</w>
B RA
B B
A i
A .</w>
8 .
5 2</w>
3 2</w>
3 1</w>
x y</w>
writ er</w>
wh el
week ends</w>
volu me</w>
vo id</w>
us er</w>
un desirable</w>
tre at
trad itional</w>
toler ate</w>
to pics</w>
tin y</w>
thu si
th ony</w>
ter ing</w>
ta pes</w>
t ool</w>
sw ing</w>
sw allow</w>
sty les</w>
stu dent</w>
st al</w>
squ are</w>
spe l</w>
soooo o</w>
so m</w>
so cc
socc er</w>
sm ur
si blings</w>
sh ort
sh ared</w>
sen ti
sco res</w>
schedu le</w>
sc ars</w>
satisf actory</w>
sa yin</w>
sa mp
s ma
s ane</w>
rom ise</w>
ro y
ro om
rif ice</w>
ri ghts</w>
resem bles</w>
regre ts</w>
ref ers</w>
re views</w>
re ment</w>
re k</w>
r yan</w>
pregn ancy</w>
pp i</w>
por no</w>
pop ul
pic ks</w>
par ano
over whel
ore an</w>
or a</w>
on el</w>
num erous</w>
nov el</w>
non sense</w>
nn nn
ne ar
na ive</w>
n ag
mp er</w>
mon ster</w>
mom s</w>
mod els</w>
min al</w>
m r
li l
kne es</w>
j ury</w>
j apanese</w>
is tics</w>
inter pre
initi al</w>
indic ate</w>
inc rease</w>
igh s</w>
i g</w>
i -
hilar y</w>
gu ts</w>
ge e</w>
fra me</w>
fir m</w>
ff er
fa thers</w>
f ren
explan ation</w>
es h</w>
equ als</w>
ent al</w>
enjoy ment</w>
ener gy</w>
ene my</w>
encoun ter</w>
en thusi
elect ric</w>
elder ly</w>
el ev
drag on</w>
disc our
dis respectful</w>
dis eases</w>
di ac</w>
devel op</w>
dete ctive</w>
deser ved</w>
de f</w>
d ang</w>
counsel or</w>
conv inc
conf use</w>
concentr ate</w>
com preh
cli ps</w>
cli m
cin ema</w>
character istics</w>
char m</w>
ch or
ch inese</w>
ce e
ca sting</w>
bur ning</w>
bu g</w>
ban ana</w>
b cuz</w>
b bean</w>
atu res</w>
artic le</w>
ar ity</w>
ap an</w>
ant ana</w>
anno y</w>
an escence</w>
al a</w>
acou stic</w>
^ ^
Z e
Yo da</w>
Wil son</w>
Wa ke</w>
W rite</w>
W ed
W ON
W EE
W AN</w>
Un cle</w>
U GH
Tre k</w>
Ton ight</w>
TT Y</w>
TO GETHER</w>
Spi derman</w>
So on</w>
Sim ilar</w>
Si x</w>
Sh ut</w>
SOUN DS</w>
S ERI
Ri hanna</w>
R .
Pur ple</w>
Pre sley</w>
P ir
Nar nia</w>
Mu ch</w>
Mon ty</w>
Mon key</w>
Min or</w>
M .
L earn</w>
L O</w>
Je ff</w>
IN TO</w>
IMP OR
I rish</w>
I diot</w>
Hi p</w>
Hen drix</w>
HUS BAND</w>
HI GH</w>
HAPP EN
H in
Fo re
FUN NY</w>
FE CT</w>
F un
F ly</w>
EN OUGH</w>
EI THER</w>
Do ors</w>
DI FF
DE FIN
D ur
D un
D ro
D re</w>
Con gratulations</w>
Col le
Clar k</w>
Chri st</w>
COUR SE</w>
Br itt
Be gin</w>
B re
B ear</w>
Av ril</w>
All en</w>
Af ter
A ir</w>
A I</w>
9 8</w>
9 11</w>
8 6
3 8</w>
199 4</w>
1 6
00 0
**** *</w>
' VE</w>
zz zz
yo rk</w>
y '
wit ty</w>
wal let</w>
wait er</w>
w ha
v ice</w>
um my</w>
ty ped</w>
twenty- one</w>
tt ed</w>
thro wing</w>
th ank
te dly</w>
te ddy</w>
te ach
sum thin</w>
suc king</w>
sub tle</w>
sub scri
su its</w>
stu dents</w>
stren g
sti e</w>
st ink</w>
spir it</w>
sp are</w>
sm itted</w>
sli pknot</w>
sk irt</w>
si zes</w>
sh y
sex iest</w>
seven th</w>
separ ated</w>
sac rifice</w>
s ni
s an</w>
s able</w>
ru ining</w>
refu ses</w>
refer red</w>
re side</w>
re levant</w>
r abbit</w>
qu ic
pu zz
provi des</w>
pre sident</w>
pre -
posteri or</w>
por tion</w>
pi eces</w>
person alities</w>
par am
p on
p iss</w>
p ac
our selves</w>
on ship</w>
ob no
obno xious</w>
o tt</w>
o il</w>
mor al</w>
mon s</w>
me l</w>
m ile</w>
low ers</w>
lon gest</w>
le o</w>
langu ages</w>
kic king</w>
k ate</w>
jud gement</w>
jo lie</w>
jo ined</w>
jen nifer</w>
it ation</w>
intri gu
int ment</w>
instre am</w>
ine bri
in ity</w>
immen sely</w>
i o</w>
hot mail.com</w>
ho ly</w>
her es</w>
hel d</w>
gras si</w>
gr and</w>
gol den</w>
g gin</w>
g an
g -
flir ta
fic ation</w>
fi anc
fanta size</w>
f older</w>
examp les</w>
est ab
eri a</w>
ent ary</w>
eni x</w>
end ea
enc ed</w>
emplo yed</w>
ei l</w>
ea m</w>
distur bing</w>
dishon est</w>
dic tionary</w>
di ff</w>
der line</w>
demonstr ate</w>
dem and</w>
de al
d play</w>
ct able</w>
comple x</w>
comple ted</w>
compla ining</w>
compe te</w>
com pared</w>
co cky</w>
clar ify</w>
choo ses</w>
che aters</w>
cele bs</w>
casu ally</w>
c enter</w>
bub ble</w>
bu tt
bri de</w>
bio graphy</w>
be in</w>
be cuz</w>
be ast</w>
bast ard</w>
b/ f</w>
b and
ari o</w>
app les</w>
anc er</w>
ag er</w>
affec tion
advent ur
accep ting</w>
a thle
Y EAR</w>
X X
WHI CH</w>
W ea
W ER</w>
Vir gin</w>
VH S</w>
V OR
Un der</w>
U sing</w>
U h</w>
TY PE</w>
Su b
Scoo by</w>
Sat an</w>
SI MP
SA YS</w>
S mo
S mart</w>
S ick</w>
S her
Ric ky</w>
Re ese</w>
Ras cal</w>
Pur chase</w>
Po ison</w>
Pick ler</w>
Par ty</w>
PROBLE M</w>
PAR T
OU LD
No v
Ne w
N EE
Musi cal</w>
Ma c</w>
MI LY</w>
Lyric s</w>
Lo c
Le an</w>
LIN E</w>
L ev
KNO WS</w>
K is
K ick</w>
K i
J ustin</w>
J A
IMPOR T
H AN
GIR L
F ish</w>
F REA
F OUND</w>
El ton</w>
E L</w>
D am
D ONE</w>
D 4
D .</w>
Car ter</w>
CH OO
C ru
C ir
C .</w>
Brea k
Bli ge</w>
BEAU TI
B lo
Ar nold</w>
An na</w>
AI DS</w>
A ustin</w>
A k
9 0
6 9</w>
200 3</w>
200 2</w>
' r</w>
' n</w>
y y</w>
wr ong
woul d
wor kers</w>
wood chuck</w>
wit nes
witnes sed</w>
what so
whatso ever</w>
w ink</w>
vor s</w>
vocal s</w>
vo ting</w>
vo cal</w>
vic tim</w>
vi sible</w>
un ge</w>
u seless</w>
tur n
tre ating</w>
to ss</w>
tit les</w>
tion ship</w>
tic ket
ti ger</w>
thr oughout</w>
thor oughly</w>
ther apy</w>
the ory</w>
that ..</w>
ten dency</w>
tem per
ta p</w>
sub sequ
st ating</w>
specific ally</w>
sk a</w>
sexu als</w>
se p
sc ar
satisf action</w>
sa tion</w>
s ould</w>
ri x</w>
rela xing</w>
re turning</w>
re tar
re stra
re acts</w>
rain bow</w>
r oun
produc tive</w>
pre vent</w>
pp in</w>
portra yed</w>
po sting</w>
plea sing</w>
pil ls</w>
perc eive</w>
par king</w>
p ton</w>
our ing</w>
or ange</w>
off ers</w>
occupi ed</w>
ob lig
o we</w>
o on</w>
nu t
no one</w>
ne at</w>
n ment</w>
my stery</w>
mor als</w>
ma sc
ma instream</w>
ma bey</w>
m ly</w>
loa f</w>
lma o</w>
lin ks</w>
laugh s</w>
l ess
kar aoke</w>
k im</w>
k .com</w>
j i</w>
j an
irre levant</w>
ir on</w>
ing field</w>
in saw</w>
im i</w>
i z
hor mones</w>
her d</w>
hair cut</w>
gur ls</w>
guit ars</w>
gro cer
gh etto</w>
fli ct</w>
ff er</w>
f ought</w>
f at
excep tional</w>
emp loy
embar as
eli min
el ling</w>
e aten</w>
don na</w>
do cum
disa gre
dic ated</w>
diam onds</w>
destin y</w>
de y</w>
d ney</w>
d ir
d ac
cu test</w>
cou se</w>
con tain</w>
clo wn</w>
ckbu ster</w>
cand les</w>
c er</w>
bu ys</w>
brow se</w>
boo k
bo l
bi ke</w>
b *
ask .com</w>
ari ous</w>
an xious</w>
an ore
an gle</w>
an al</w>
amaz on</w>
alpha bet</w>
a partment</w>
Z E</w>
Wor k</w>
WHI LE</w>
WAT CH</w>
W y
V ol
V ic
V ampire</w>
UN TI
U G
Tre at</w>
Thi rd</w>
TH OSE</w>
T EN</w>
Ste wie</w>
Sil ent</w>
Si ze</w>
Secre t</w>
Se infeld</w>
STU FF</w>
S ty
S to
S ou
S ongs</w>
S ol
S NT</w>
S ES</w>
S ER</w>
Re mix</w>
Re li
RE SPE
R S</w>
R IS</w>
Pro vi
Pri son</w>
PL ACE</w>
P ie</w>
P ac</w>
P T</w>
OR T</w>
O T</w>
Nov ember</w>
No tebook</w>
Net flix</w>
N ah</w>
N ET</w>
Mr s.</w>
Movi es</w>
Mil ler</w>
Mes senger</w>
Mat the
MA KES</w>
M el</w>
LO TS</w>
L ane</w>
K yle</w>
K u
I d</w>
Hor ror</w>
Haw thorne</w>
Ha ha</w>
H ulk</w>
H eights</w>
H ands</w>
God father</w>
Gang sta</w>
GRE EN</w>
G ang</w>
G N
Fur thermore</w>
Fran kie</w>
Fran k
Fol low</w>
Fin al</w>
Fa ith</w>
F lat
F ar
F ACE</w>
El li
E ye</w>
E mma</w>
E D
Dri ve</w>
Dre w</w>
Di am
Des perate</w>
D D</w>
CAL LED</w>
C entr
C TION</w>
C RE
C R</w>
C LA
C ER
C EN
Aero smith</w>
Ad ams</w>
AM ERI
AL AL
A na
A my</w>
9 th</w>
5 5</w>
13 th</w>
/ 7</w>
.. he</w>
. just</w>
. But</w>
' t</w>
zabe th</w>
yyyy yyyy
youn g
y ur</w>
www. google.com</w>
writ ers</w>
worth while</w>
wor ries</w>
whi p</w>
wh t</w>
wh ine</w>
wei gh</w>
we ir
we dd
vig ne</w>
val ent</w>
us her</w>
un stable</w>
ug ust</w>
twi sted</w>
tran smitted</w>
tra it</w>
thro ws</w>
th n
temp or
t ti
t ite</w>
surpri ses</w>
sur ing</w>
st el</w>
st alk</w>
spo il</w>
soooo oo</w>
som one</w>
sna ke</w>
sil ver</w>
sig ning</w>
si de
sh in</w>
se duce</w>
sa s</w>
s cam</w>
ro e</w>
ro b
ri ver</w>
respon ding</w>
re verse</w>
r ound
r ating</w>
pus sy</w>
pub licity</w>
produc ts</w>
prob aly</w>
pro ject</w>
po sters</w>
po l
pic nic</w>
person aly</w>
pe ter</w>
p ort
p ls</w>
p itt</w>
ondo cks</w>
offic er</w>
nipp les</w>
n ite</w>
n es</w>
mmmm mmmm
milli ons</w>
lo ttery</w>
lin kin</w>
l -
know ..</w>
ke mon</w>
j im</w>
j elly</w>
it .com</w>
inv est
inqu iring</w>
ing -
im ate</w>
hon ey
hel ping</w>
har sh</w>
h en
grocer y</w>
gree dy</w>
go th</w>
go s</w>
gir ly</w>
gang ster</w>
ful fill</w>
fu ll
fro g</w>
fore play</w>
for ty</w>
flirta tious</w>
fli p</w>
fe cted</w>
favor s</w>
fanta sies</w>
fa il
f fe</w>
excep tion</w>
ex ten
et c
eri e</w>
eri c</w>
er ts</w>
enter ing</w>
en tic</w>
en a
embarras sing</w>
em er
el liot</w>
ea st</w>
dri bbles</w>
dre am
do c</w>
discus sion</w>
dis liked</w>
di os</w>
dev o
determin ed</w>
dec eased</w>
dd les</w>
da mage</w>
d is</w>
d ently</w>
coun tries</w>
copi es</w>
conclu sion</w>
con qu
compar ison</w>
comp lim
col our</w>
cla im</w>
chi ck
che at
car rying</w>
c ent
bri dge</w>
brea thing</w>
bra in
br itney</w>
bl unt</w>
bil lie</w>
ber ry</w>
ber g</w>
beg ging</w>
beau ti
bar tender</w>
ban ned</w>
back ground</w>
b illy</w>
b en</w>
b atman</w>
auth entic</w>
app le</w>
ann oun
an ing</w>
amu sement</w>
ali e</w>
al ty</w>
after noon</w>
adventur ous</w>
ack er</w>
a ol
a id</w>
Z ombie</w>
Yel low</w>
We b
WOR TH</w>
W olf</w>
V EN</w>
Th row</w>
TUR N</w>
THE SE</w>
T wins</w>
T ree</w>
T ES</w>
Sur vi
Sur pri
Spon gebob</w>
Si ster</w>
Sab bath</w>
SU PP
SON GS</w>
S ue</w>
S tern</w>
S hop</w>
S even
S ara</w>
S EN
Ric hie</w>
Ra ther</w>
RU N</w>
RE SS</w>
R hy
R achel</w>
OU T
N u
N eil</w>
Mon ster</w>
Me dia</w>
Me an</w>
Mar t</w>
Mar ried</w>
M SN</w>
Li e</w>
LEAR N</w>
L and</w>
K at
Jac kie</w>
J ourney</w>
J ER
Ig nore</w>
I pod</w>
HO O</w>
HEA D</w>
H ER
Gre y</w>
Gra w</w>
G ee
G RO
Fr anc
Fin ding</w>
Fem ales</w>
F ro
F igh
F ear</w>
Exor cist</w>
Ex plain</w>
E ag
Dec ember</w>
Dar th</w>
DA M
D4 L</w>
D uring</w>
D OU
D ON
D ES</w>
Char lotte</w>
Centr al</w>
Cau casian</w>
CU Z</w>
CHOO SE</w>
Bl unt</w>
Be en</w>
Be at</w>
BU Y</w>
B erry</w>
B anks</w>
App arently</w>
Alterna tively</w>
Ac cording</w>
AL ONE</w>
A void</w>
A ugust</w>
A PP
4 7</w>
3 00</w>
24 /7</w>
10 1</w>
.. you</w>
.. the</w>
. what</w>
z ar
yahoo .
y eh</w>
y ..
x i</w>
wor ms</w>
wi shing</w>
wa z</w>
w a</w>
vo ca
vi l</w>
vari es</w>
valent ines</w>
u re
tru sting</w>
tre n
traff ic</w>
tor ia</w>
to wel</w>
th us</w>
tes tic
teach ers</w>
tal ents</w>
t ful</w>
t act</w>
sym bo
sun day</w>
su itable</w>
su al</w>
stuff ed</w>
st um
st ol
sp in</w>
sp ends</w>
sou p</w>
si ans</w>
sha ped</w>
sel ls</w>
se wives</w>
se dly</w>
scre amed</w>
sand wich</w>
sa dly</w>
s wa
s rry</w>
s or</w>
roo ster</w>
reci eve</w>
reason ing</w>
re ached</w>
rat ings</w>
r age</w>
psychi c</w>
produc er</w>
pro duction</w>
predi ctable</w>
pr ince</w>
poin ted</w>
po ser</w>
play in</w>
plan ned</w>
pi er
param our</w>
p /
ori a</w>
op ti
ol ds</w>
off ered</w>
occa sions</w>
o dy</w>
nor th</w>
neighbor hood</w>
nega tively</w>
na tion</w>
n in</w>
musc ular</w>
mo s</w>
mm ing</w>
master .com</w>
marri ages</w>
man age</w>
ma ker</w>
ma donna</w>
logi st</w>
log ne</w>
lo ses</w>
li est</w>
li ars</w>
le ck</w>
le .com</w>
l un
l en</w>
knowle dg
kin g
ke ith</w>
k -
jes se</w>
j el
j am</w>
inst in
instin ct</w>
initi ally</w>
in si
in king</w>
import antly</w>
im it
ic y</w>
i i</w>
hol ds</w>
ho les</w>
gu s</w>
gu es</w>
gre enday</w>
gran ted</w>
gr ateful</w>
ga ined</w>
fri es</w>
fre t</w>
fr ank</w>
forgi veness</w>
for given</w>
foo ling</w>
fail ure</w>
f ling</w>
f es
expres sing</w>
expec tations</w>
exc e
ex otic</w>
ex e
even ge</w>
ero tic</w>
ene mies</w>
en u
el vis</w>
ef s</w>
ed it</w>
e /
don `t</w>
dis sa
difficul ties</w>
deta il</w>
d il
d an
cu ts</w>
cu dd
ct ors</w>
conne cted</w>
con ce
compreh end</w>
com in</w>
com ical</w>
co w
co des</w>
cli ffe</w>
clar kson</w>
circum stance</w>
cho sen</w>
cher ish</w>
car ey</w>
c el
c .
bur st</w>
bu zz</w>
bru ary</w>
broad cast</w>
br ac
bour ne</w>
boo t</w>
bo ld</w>
bi a</w>
ber ty</w>
beca sue</w>
back side</w>
b ond</w>
b are</w>
b all
attribu tes</w>
at on</w>
ash ley</w>
ar ts</w>
ang es</w>
an der</w>
affection ate</w>
aband on</w>
a ve</w>
Y ET</w>
Who ever</w>
Wed nesday</w>
Wa shington</w>
WO W</w>
W ind</w>
W ING</w>
VO TE</w>
U T</w>
Ti mes</w>
Ther es</w>
TU ALLY</w>
TT TT
TI VE</w>
Survi vor</w>
Some body</w>
Sh rek</w>
Sex y</w>
Se th</w>
Sam ur
Sam my</w>
SU CKS</w>
ST AN
SN L</w>
SI STER</w>
SI CK</w>
Rob in</w>
Ram ones</w>
RO CKS</w>
R evenge</w>
R ED</w>
Pic ture</w>
P sy
P at</w>
P at
O oo
O livia</w>
O C</w>
Napo leon</w>
M ul
M ickey</w>
M as
M ales</w>
M ED</w>
M .</w>
Lo ves</w>
Li on</w>
LO AD</w>
L ose</w>
L am
K o
K ind</w>
J .</w>
IMPORT ANT</w>
I -
Hou sewives</w>
H OR
H EAR</w>
Gu n</w>
Good ness</w>
Go sh</w>
Ge orgi
G IN
Fl orida</w>
Fe el</w>
Fantas y</w>
F OO
En ter</w>
En d</w>
Di esel</w>
De ep</w>
DU DE</w>
DIFF ER
DE CI
D oo
D em</w>
Cur rently</w>
Cho col
Che ating</w>
CRA ZY</w>
CH RIS</w>
C y
C rue</w>
C lose</w>
C ena</w>
Bri de</w>
Big gie</w>
Bear share</w>
Be ck
BEAUTI FUL</w>
BE T</w>
Ani ston</w>
An n</w>
An dre
Al most</w>
AA AA
A lot</w>
A TE</w>
A R</w>
9 .
4 .</w>
2 5
/ k</w>
- time</w>
zi p</w>
youn gest</w>
yn es</w>
y e
y an
x xx</w>
whe el</w>
wer ent</w>
war ya</w>
wa ves</w>
wa ist</w>
w id</w>
vo ws</w>
vir go</w>
ver sa</w>
v s.</w>
v om
urin ate</w>
under stands</w>
tv .com</w>
tu be</w>
tter man</w>
treat ment</w>
tr o</w>
to ber</w>
ti sti
ti ming</w>
th ong</w>
th ly</w>
th day</w>
ter a</w>
t ina</w>
t ally</w>
stu b
stra ight
star es</w>
stand ard</w>
spea kers</w>
spe ars</w>
soun ding</w>
sor ts</w>
sk i</w>
sk ating</w>
sing ly</w>
shu d</w>
sh i</w>
serv ices</w>
sa m</w>
sa fe
safe ty</w>
s oooooooo
s having</w>
s ca
ro t</w>
ri ce</w>
reve aled</w>
rela xed</w>
regga eton</w>
re l</w>
rac ial</w>
ra w</w>
r r</w>
r ack</w>
prote cted</w>
pre tti
practic ing</w>
pp ard</w>
photo graph</w>
pen e
pas ses</w>
parti al</w>
parano id</w>
pa wn</w>
p se</w>
p p</w>
p onder</w>
p lo
own er</w>
over board</w>
ol dies</w>
no t
ne ck
n it
n elly</w>
musc les</w>
masc ul
mar ks</w>
mani pul
m ere</w>
liter ally</w>
list s</w>
lin ton</w>
li ons</w>
les son</w>
leg end</w>
la m
la d</w>
l ville</w>
l bs</w>
kis ser</w>
kipe dia</w>
k orn</w>
k ness</w>
k er
j unior</w>
j ones</w>
itt or
itch ed</w>
ir o</w>
invol ve</w>
inst inc
ing ers</w>
inf eri
inferi or</w>
inebri ated</w>
indi e</w>
in ting</w>
in sp
in o
impl ants</w>
ignor ing</w>
id dy</w>
i ze</w>
i ded</w>
hu mps</w>
hoo ker</w>
honey moon</w>
hin di</w>
ha vin</w>
ha ve
ha ting</w>
ha snt</w>
h mmmm</w>
h m</w>
h -
gee ks</w>
fre inds</w>
foc used</w>
finan cially</w>
fi sh
fi es</w>
fa bulous</w>
f ty</w>
explo de</w>
ess or</w>
ed ith</w>
disor der</w>
din osa
di str
di stant</w>
di ct
dev ice</w>
destin ation</w>
de on</w>
d der</w>
d aniel</w>
d /
cu ri
cro ssed</w>
cre ating</w>
cop y
coo lest</w>
coo kie</w>
conversa tions</w>
commun ity</w>
co logne</w>
clas sy</w>
ck ers</w>
cir cus</w>
cele b</w>
car ries</w>
cal s</w>
ca de
bra ke</w>
bor row</w>
bo p</w>
bloo dy</w>
bl ack
bel t</w>
be es</w>
b led</w>
b ic
auth or</w>
audi ence</w>
as ser
ant i</w>
anore xic</w>
am ic
al y
ac ious</w>
ab y
a wake</w>
a sha</w>
X- Men</w>
WW W.
WI FE</w>
W ear</w>
W /</w>
UNTI L</w>
UN I
U l
To gether</w>
TO LD</w>
THR OUGH</w>
Sha dy</w>
SU CH</w>
SOME TIMES</w>
S now</w>
S EA
Rob erts</w>
Ro cket</w>
Ra ven</w>
R oom</w>
R ac
R OM
R ING</w>
Pow ter</w>
Po li
Pir ates</w>
PS P</w>
PI CK</w>
PER FECT</w>
Os car</w>
O hio</w>
Ne -
Mur ray</w>
Mur phy</w>
Mo tley</w>
Mc Graw</w>
Mat t</w>
Mag az
M en
L P</w>
L LI
Ke anu</w>
Ja ke</w>
J -
IN GS</w>
I VE</w>
I SE</w>
I II</w>
Hu mps</w>
Hol ly</w>
HHHHHHHH HHHHHHHH
HAHA HAHA
H all</w>
Gol den</w>
G or
G ent
G abri
G ON</w>
Fre ddy</w>
Fran chi
Fla v</w>
FIN E</w>
FA MILY</w>
F rea
F lowers</w>
Ev entually</w>
E va</w>
E ast</w>
E ach</w>
E T
Dy namite</w>
Drag on</w>
Don ald</w>
DE S
D ig
D e</w>
D an
D REA
CRA P</w>
C had</w>
Bren na</w>
Bea st</w>
Bar bie</w>
Ar mstrong</w>
Appro ach</w>
Amer icans</w>
A la
A WE
7 7
4 5
4 4
197 0</w>
1 7
.. or</w>
. so</w>
. org</w>
- in-law</w>
' '
zz ie</w>
z one</w>
z el</w>
z ac</w>
yr d</w>
yo r</w>
y la</w>
wr ongs</w>
wan na
wa its</w>
ven ue</w>
v e-
um s</w>
u ate</w>
u -
twenty- five</w>
tw o-
tur ama</w>
tion ing</w>
th is
testic les</w>
terri bly</w>
tane ously</w>
tal y</w>
ta h</w>
t ex
t ear</w>
swim ming</w>
su t</w>
su red</w>
str a</w>
stol en</w>
squ irrel</w>
spi der</w>
sper m</w>
sp r
soci alize</w>
shi pping</w>
shar p</w>
sh out</w>
sett ings</w>
se tte</w>
se ed</w>
se anne</w>
sc rat
s nee
s mu
s *</w>
ru bs</w>
ro cked</w>
rhy mes</w>
repe ating</w>
regar ds</w>
reciproc ate</w>
rea my</w>
re solve</w>
re pair</w>
ra z
purcha sing</w>
propo sal</w>
prefer ences</w>
poe try</w>
par ked</w>
p uni
p o</w>
p ly</w>
p it</w>
p ill</w>
over -
oul ev
opportun ities</w>
oo t</w>
occu py</w>
no wadays</w>
ner ds</w>
music .com</w>
mo red</w>
mo re
mo on
mi l</w>
mi ke</w>
mat ch.com</w>
masturb ate</w>
mari ah</w>
mar ital</w>
mar ily</w>
mar ch</w>
man ly</w>
mag ical</w>
ma kin</w>
ma dly</w>
lu ck
lo vin</w>
lit ary</w>
li ft</w>
lea ther</w>
la sted</w>
l an</w>
key board</w>
k it</w>
jack et</w>
j sut</w>
is co</w>
insul ting</w>
inst all</w>
indu stry</w>
in uyasha</w>
in ju
in go</w>
in d
ii ii
ig s
ho ped</w>
ho p
ho lidays</w>
hel le</w>
head phones</w>
happ end</w>
h u</w>
gr unge</w>
gover nment</w>
gol f</w>
go thic</w>
gi ant</w>
gh test</w>
ger a</w>
for mal</w>
finan cial</w>
fianc ee</w>
fe tish</w>
fac ial</w>
fa irs</w>
f allen</w>
f acts</w>
f actor</w>
f ***</w>
expres sion</w>
exclu sive</w>
exc es
exces sive</w>
es day</w>
equi valent</w>
ep ants</w>
end ure</w>
en try</w>
en dy</w>
el f</w>
doub ts</w>
disp lay</w>
disappo inting</w>
dis respect</w>
der ella</w>
dep th</w>
dele ted</w>
de cade</w>
daugh ters</w>
dac ris</w>
cu r</w>
cu ddle</w>
cre atures</w>
coun ting</w>
con stru
comm end</w>
co ast</w>
cli ff</w>
cir cle</w>
chee ks</w>
cer ti
cali fornia</w>
cal yp
bur ned</w>
bu gging</w>
bu ck</w>
bl ank</w>
bil lion</w>
be ware</w>
be fore
bal lo
b lowing</w>
au to
at loaf</w>
astro logy</w>
ali yah</w>
ali ens</w>
air plane</w>
ag ra</w>
af fairs</w>
adverti sing</w>
absolu te</w>
a ids</w>
` m</w>
Z o
Ya hoo
YA HOO</w>
Y Y
Wi ld</w>
WHO LE</w>
WHA T
W icked</w>
W IN
V ince</w>
U U
Tra vis</w>
Th em</w>
Ta ffy</w>
Sha wn</w>
ST E</w>
SI ON</w>
SH ES</w>
SE E
S ing</w>
S hor
S antana</w>
S andler</w>
S Y
S OU
Rus sian</w>
Ro d</w>
Re eves</w>
REA D</w>
R on</w>
R ent</w>
R ap
R abbit</w>
QUESTI ONS</w>
Pu mp
Pri est</w>
Pr o</w>
Pi zza</w>
Par t</w>
PRE TTY</w>
P lu
P C</w>
Oper ation</w>
O u
Ne ws</w>
Mil lion</w>
Mi ster</w>
Mar ley</w>
Ma y
MO THER</w>
M erry</w>
M andy</w>
M ale</w>
Li st</w>
Li bra</w>
La ffy</w>
LEA ST</w>
L MA
L AN
King dom</w>
K night</w>
K id
J essi
Ital ian</w>
INTER NET</w>
INTER EST
HI L
H ood</w>
H its</w>
H igh
Gro ove</w>
Gent le
Gen er
G ump</w>
G ates</w>
G F</w>
Flat ts</w>
FU LL</w>
Exc ept</w>
En ough</w>
Ea st
E mer
D iddy</w>
D ating</w>
D al
D DY</w>
Cor rect</w>
Car toon</w>
C at</w>
Bu gs</w>
Bu ffy</w>
Br yan</w>
Bo wie</w>
Bl ack
Bir thday</w>
BL ACK</w>
Ar t</w>
An derson</w>
Ali ce</w>
AC K
A dd</w>
A aron</w>
8 5</w>
2 7
1 ,
.. its</w>
' bout</w>
y /
x .com</w>
wrest ler</w>
wr ites</w>
wor ship</w>
wil li
wedd ings</w>
weal th</w>
way z</w>
w t
w rap</w>
vir t
ver sus</w>
up load</w>
un known</w>
un fair</w>
u res</w>
u b
ts sing
tou ched</w>
tor ren
tor n</w>
thro at</w>
tea sing</w>
tat oes</w>
t reas
t n</w>
su re
stre ets</w>
stereo typical</w>
ssi ppi</w>
ss ss
sp ray</w>
sp in
sol ely</w>
sm ent</w>
sla pped</w>
signific antly</w>
si zed</w>
si ssippi</w>
sha dow</w>
se ..</w>
sc r
sar ca
sa g
s our</w>
s lo
rr rr
room mate</w>
resi dence</w>
request s</w>
repor ted</w>
ren ting</w>
refle ct</w>
rec commend</w>
re tired</w>
re ar</w>
ra ige</w>
provi ding</w>
pro files</w>
pr ank</w>
pp lin</w>
positi vely</w>
po ster</w>
pi os</w>
pene tr
pe ar
pa st
p ons</w>
p le
p ile</w>
p ace</w>
or ities</w>
om ever</w>
ob ain</w>
night mare</w>
ni k</w>
neighbor s</w>
na vigate</w>
mu le</w>
mo ore</w>
mini mum</w>
min t</w>
mi se</w>
mi li
mascul ine</w>
mar raige</w>
ma iden</w>
lin dsay</w>
ligh ter</w>
li eing</w>
le tssing
lan ds</w>
lab eled</w>
kno w.
ke ep
jud ging</w>
irrit ating</w>
intimi dated</w>
inter act</w>
instinc ts</w>
inqu iry</w>
in sert</w>
import ance</w>
il lu
il le</w>
i sts</w>
i or</w>
i do
horosco pes</w>
home page</w>
high school</w>
hero in</w>
hear ted</w>
hair y</w>
haha haha</w>
h it
h all</w>
guy z</w>
gre y</w>
gra ph
gr ay</w>
genit als</w>
ge on</w>
ge mini</w>
ga ther</w>
g lue</w>
g age</w>
g ad
g /
fun ny
fore most</w>
for ts</w>
fil ming</w>
figu res</w>
fas cin
f i</w>
f *
ey e
exper im
exc essi
excessi vely</w>
ex erc
ev ol
est er</w>
ess a</w>
es /
er ror</w>
emp ha
el son</w>
el ine</w>
e w</w>
e be</w>
dr un
do wed</w>
di ly</w>
develop ed</w>
descri ption</w>
definit ly</w>
def end</w>
de x</w>
de st
de gree</w>
de fine</w>
de fec
de e</w>
de als</w>
dat a</w>
d well</w>
d ust</w>
d r</w>
d l</w>
cred ited</w>
continu ed</w>
con serv
communic ating</w>
com pen
co. uk</w>
clar inet</w>
chor ds</w>
che stra</w>
cha mp
cha in</w>
centr al</w>
ce an</w>
car ri
cade my</w>
ca sin
ca ine</w>
bro keback</w>
brea the</w>
br it
boy z</w>
box ers</w>
bit ter</w>
bi lities</w>
be side</w>
ba si
at est</w>
argu ments</w>
ar med</w>
app arent</w>
ani mation</w>
ali zed</w>
al th</w>
ag ome</w>
affec tions</w>
adverti sement</w>
adverti se</w>
adul tery</w>
ab o
ab normal</w>
_ _</w>
Z ING</w>
Y ang</w>
We ird</w>
W ood</w>
W on
W ol
W o</w>
W ire</w>
W all
W .</w>
Vir go</w>
U P
Tro y</w>
Tri ple</w>
Tor rent</w>
T erry</w>
T V
T EL
Sug ar
Su n</w>
St ephen</w>
St and</w>
Sp ir
Some where</w>
Sle epy</w>
Sha ke</w>
Se ems</w>
Scar face</w>
Samur ai</w>
Sa ving</w>
SS ED</w>
SIN GLE</w>
S ound</w>
S onny</w>
S mal
S ad
Ro ss</w>
Rela x</w>
Reg ga
Re jects</w>
Re f
RE P
R ush</w>
Provi de</w>
Pr incess</w>
P ul
P ain</w>
OP EN</w>
O k
O f
O cean</w>
Ne- Yo</w>
NO R
NEE DS</w>
N as</w>
N ED</w>
Mom my</w>
Mo stly</w>
Magaz ine</w>
MA D</w>
M ouse</w>
Li ving</w>
LL ING</w>
LIN GS</w>
LE FT</w>
L augh
L ater</w>
K E
Jessi e</w>
Je wish</w>
Jan uary</w>
Ja de</w>
J et</w>
J apan</w>
Imag ine</w>
I' ma</w>
I L
Hu stle</w>
Ho liday</w>
Hea vy</w>
Ham mer</w>
Hal f</w>
HON EST</w>
HAPP EN</w>
H .
Gre etings</w>
Gre atest</w>
For ce</w>
Fo xx</w>
Fla sh</w>
Fe bruary</w>
FEE LINGS</w>
F ord</w>
F ight</w>
F Y
F ALL</w>
Elli ott</w>
EN TS</w>
E m
E X</w>
Dro p</w>
Dol lar</w>
Di vor
Di e</w>
DO G</w>
DI S
DAM N</w>
D RI
D -
Cra shers</w>
Cra ig</w>
Con tact</w>
Com ics</w>
Cin derella</w>
Christ opher</w>
Chocol ate</w>
Char les</w>
Ch ange</w>
CHEA TING</w>
CH RI
C at
Bu ddy</w>
Bro oks</w>
Break fast</w>
Bo o</w>
Bi ble</w>
Be d
BREA K</w>
B ever
B ac
B AR
B AN
Ash lee</w>
Ar ound</w>
Aqu arius</w>
An thony</w>
Ali en</w>
AL READY</w>
A w
A ri
A ir
A cademy</w>
A MA
9 5</w>
9 -
8 8</w>
8 00</w>
7 0s</w>
5 1</w>
4 6</w>
4 4</w>
2 50</w>
.. they</w>
. a</w>
**** **</w>
´ t</w>
zo diac</w>
your selves</w>
you ..</w>
yo n</w>
y -</w>
ww ow</w>
wt f</w>
wn ed</w>
wit ness</w>
wi shed</w>
we d
watch in</w>
wal l
vil la
ver ine</w>
vac u
v ity</w>
us er
up side</w>
under ground</w>
un cond
ul ate</w>
u lation</w>
tre ss</w>
too th
too ..</w>
ticket master.com</w>
ti fy</w>
ti ed</w>
thre at
thi ze</w>
th ur</w>
th under</w>
ten nis</w>
tempor ary</w>
tech ni
t- shirt</w>
t z</w>
t to</w>
t ag
syn c</w>
sympa thy</w>
susp icious</w>
survi ve</w>
sum 1</w>
stu me</w>
stu dying</w>
stu dios</w>
st ure</w>
spon ge</w>
speci fy</w>
so red</w>
sna p</w>
slu tty</w>
sla ve</w>
sk ool</w>
sil ence</w>
shor tly</w>
sho ts</w>
sh ri
secre ts</w>
se an</w>
scre en
scr atch</w>
scor pio</w>
schoo l
sc oo
sal t</w>
sa d
s lower</w>
ro les</w>
ro cker</w>
retar ded</w>
reje ction</w>
red head</w>
re presents</w>
re consider</w>
rac ing</w>
r ang
qu ali
pur se</w>
pu rely</w>
pu pp
produc ing</w>
pri corn</w>
pri ced</w>
preten ding</w>
pre views</w>
popul arity</w>
pop corn</w>
po tatoes</w>
po ker</w>
pla ya</w>
pis ces</w>
pir ates</w>
pa y
p ag
own ed</w>
os ity</w>
orgas ms</w>
on e..</w>
on e
om er
od or</w>
ob tained</w>
o xy
o wns</w>
o ved</w>
nee dle</w>
neck lace</w>
ne y
ne tt</w>
na w</w>
na p
n g</w>
n ell</w>
n ano</w>
my th</w>
mi x
mi litary</w>
mat ches</w>
man da</w>
make -up</w>
m our</w>
m ..</w>
lu m</w>
loo k
lo lo
lim its</w>
li k</w>
li ght
letssing it.com</w>
lea p</w>
lan ta</w>
l ins</w>
kno cked</w>
k el
k az
jo ining</w>
jer ry</w>
it or</w>
it `s</w>
is y</w>
inv itation</w>
intel le
in come</w>
il er</w>
hy pe</w>
hy gi
hipp ie</w>
hil ton</w>
hil ls</w>
her /
hea vi
harm ful</w>
gradu ation</w>
gr ace</w>
good- looking</w>
gi m</w>
gi g</w>
gg les</w>
gener ate</w>
gas oline</w>
gar den</w>
gang sta</w>
ga tive</w>
g ent</w>
fun ky</w>
fri ggin</w>
frea ked</w>
fli cks</w>
fla sh
fa de</w>
ession al</w>
eng ines</w>
el ses</w>
ef forts</w>
ear ning</w>
e ducated</w>
du ll</w>
du l</w>
do or
dis loyal</w>
dis co
direc tions</w>
di me</w>
di a
defin atly</w>
de mption</w>
de dicated</w>
de but</w>
d ork</w>
d j</w>
cur se</w>
cu tie</w>
cu late</w>
crit ici
cover ing</w>
convinc ed</w>
conven i
con stant</w>
con flict</w>
compar able</w>
compani onship</w>
compani ons</w>
col n</w>
co stume</w>
co a
classi fied</w>
ck le</w>
ck .com</w>
chi c</w>
cee ded</w>
ca ve</w>
ca ster</w>
ca ps</w>
c us
c ept</w>
c 'mon</w>
bu mps</w>
bri ef</w>
bre ed</w>
bo dys</w>
big gie</w>
believ ing</w>
be ep</w>
bas ket</w>
bal ance</w>
b ruce</w>
b read</w>
b f
b '
aw ards</w>
as sho
ari an</w>
ar t
ar k</w>
ar do</w>
aol .com</w>
anno n</w>
an sas</w>
an do</w>
amic able</w>
amer ic
amaz ed</w>
agre es</w>
advi sable</w>
adv ances</w>
adv anced</w>
adi an</w>
ad n</w>
accomp lished</w>
ac quired</w>
ac cor
abi an</w>
ab ic</w>
a tically</w>
a k</w>
ZZ ZZ
Wr ong</w>
Wor st</w>
Wat ching</w>
War ner</w>
WON DER
WHAT EVER</w>
WAT CH
WAN TED</w>
W ater</w>
W ENT</w>
W A</w>
Valent ines</w>
VI DE
UG LY</w>
U ATION</w>
Ty ler</w>
Tom orrow</w>
Thur sday</w>
Te ch
TION S</w>
T ough</w>
T oo
T ina</w>
T I</w>
T A</w>
Spi ke</w>
Smur f</w>
Sm ile</w>
Si x
STR ONG</w>
SP EA
SIT UATION</w>
SE EN</w>
SE CON
S wi
S ound
S na
S low</w>
S V
S LOW</w>
S EAR
Ref rain</w>
RESPE CT</w>
R est</w>
R en
R AC
Play boy</w>
Person als</w>
Per fect</w>
PO SSI
PH ONE</w>
PER I
OULD NT</w>
O THERS</w>
O S</w>
O LD
Nickel back</w>
NU MBER</w>
N ails</w>
Mer edith</w>
Mar gera</w>
Ma fia</w>
M ars</w>
M Y
M OM
Lon ely</w>
Len o</w>
Le tterman</w>
La vigne</w>
L ON
K ra
K az
Jo jo</w>
JO H
J imi</w>
In to</w>
I ll</w>
I V</w>
I GHT</w>
I D
Hin di</w>
H ook</w>
H anks</w>
Gi ven</w>
Georgi a</w>
G im</w>
Fore ver</w>
Fo cus</w>
FY I</w>
FEE LING</w>
F ender</w>
F at
Every time</w>
Ear l</w>
E vil</w>
E ight</w>
E B
Du ke</w>
Du h</w>
Dou bt</w>
Do c</w>
Divor ce</w>
Den nis</w>
DOWN LOAD</w>
D ress</w>
D NT</w>
Cu be</w>
Co lum
Ch a</w>
COUN TRY</w>
C ut</w>
C op
C obain</w>
C linton</w>
C ari
Bro ad
Bas ed</w>
B oulev
B ol
B o</w>
B it
B A</w>
B 5</w>
B -
Ani me</w>
Amaz ing</w>
Aff irmative</w>
A ve</w>
A dul
A O
6 66</w>
3 9</w>
200 1</w>
0 6</w>
.. no</w>
.. just</w>
. s</w>
z o</w>
z illa</w>
yea h
www. youtube.com</w>
www. myspace.com</w>
www. download.com</w>
wu z</w>
wi pe</w>
wi l</w>
week ly</w>
wea pon</w>
we stern</w>
wan a</w>
w/ o</w>
vers ity</w>
ver ify</w>
valu able</w>
valent ine</w>
v ement</w>
user name</w>
us a</w>
ur ban</w>
up pets</w>
un credited</w>
un acceptable</w>
u hh</w>
tri al</w>
trav eling</w>
tor ious</w>
to taly</w>
to ast</w>
the ad</w>
temp tation</w>
tea ses</w>
te sting</w>
te sted</w>
ta i</w>
t ween</w>
t u</w>
suppor tive</w>
streng th</w>
sto ls</w>
sto ck</w>
sti mul
sti cking</w>
ste ful</w>
st eak</w>
squ ee
so da</w>
sno op</w>
sl ang</w>
simp sons</w>
si gh
si er</w>
sho ck</w>
sh warya</w>
sh ment</w>
sev ere</w>
sen ior</w>
sau ce</w>
sat urday</w>
sal sa</w>
s ack</w>
rock ers</w>
ro ws</w>
ro ot</w>
ris ks</w>
ring tone</w>
ri ddles</w>
rest room</w>
respe cts</w>
rer un</w>
refu sed</w>
re ti
re ll</w>
re cover</w>
ra pped</w>
que er</w>
prostitu tes</w>
progre ss</w>
pri est</w>
predi ct</w>
pre view</w>
pre ppy</w>
pre cious</w>
pow der</w>
posses ses</w>
po sing</w>
po ison</w>
play list</w>
pl ant</w>
pic ally</w>
pi mp
peri o
perform ances</w>
pe ppers</w>
pa tion</w>
p ump</w>
p eas</w>
p c</w>
over rated</w>
over all</w>
org an</w>
off end</w>
o hh</w>
nor mal
no where</w>
ner ve</w>
n i</w>
n anny</w>
mov ements</w>
mor pheus</w>
mon keys</w>
mi ghty</w>
mee ts</w>
medi c
man ners</w>
ma c</w>
m or</w>
lou ie</w>
lou dly</w>
load ed</w>
ll z</w>
list ings</w>
li ver</w>
li ssa</w>
li ek</w>
leg it</w>
laun dry</w>
lan ded</w>
la tio</w>
la tin</w>
l z</w>
knowledg eable</w>
kin ky</w>
kar ma</w>
ka tie</w>
k ong</w>
k ish</w>
k evin</w>
j ason</w>
it alian</w>
invol ves</w>
interpre t</w>
in sist</w>
in correctly</w>
imp ly</w>
ig no
ic h
hum an
hop eless</w>
hob bies</w>
hi p
hi d</w>
hhhh h</w>
guil t</w>
gu d</w>
gr 8</w>
go at</w>
gg ling</w>
gen e
ga ys</w>
g/ f</w>
g all
funni er</w>
fun eral</w>
ful lest</w>
ful filling</w>
fu ckin</w>
frustr ated</w>
frigh ten</w>
for um</w>
flir ty</w>
fin ity</w>
ff le</w>
expres sed</w>
exam ine</w>
ex- wife</w>
ex- husband</w>
es p</w>
ere ction</w>
entu cky</w>
enthusi as
enter tain</w>
ent z</w>
en tation</w>
en dowed</w>
ell i</w>
electr on
ei sha</w>
eba y.com</w>
ear y</w>
ea ger</w>
dv ds</w>
dro wn</w>
dro ps</w>
do e</w>
distur bed</w>
discus sed</w>
di stri
desper ation</w>
deser ving</w>
depres sing</w>
de mon</w>
da ve</w>
cy ber</w>
cu m</w>
cu be</w>
cra ft</w>
cover s</w>
cor se</w>
coo ler</w>
contain ing</w>
con fron
complim ents</w>
comp romise</w>
comm ing</w>
come dies</w>
co ws</w>
co con
co ach</w>
clas s
cho p</w>
chi cago</w>
chemi stry</w>
che er</w>
ch war
car tney</w>
car rie</w>
butter flies</w>
bu ff
br ace</w>
bl ink</w>
bl ank
blank et</w>
bl a</w>
bi c</w>
begin ing</w>
be ating</w>
back stage</w>
b* tch</w>
b itch
b coz</w>
autom atically</w>
athle tic</w>
at y</w>
as ses</w>
appear ing</w>
ap a</w>
am o</w>
all out</w>
al lowing</w>
ail or</w>
agre eable</w>
after ward</w>
advi sed</w>
advent ure</w>
abi a</w>
aa a
a. org</w>
a x
a use</w>
a dol
You Tu
Y ED</w>
WOR RY</w>
WE EN</w>
WE DD
W hats</w>
W endy</w>
W ONT</w>
Vi ol
V e
V ader</w>
Under wood</w>
UNDER STAND</w>
U sed</w>
U ni
Tu esday</w>
Ti ger</w>
Th rough</w>
Th ri
Ter min
Tel evision</w>
Te en
Ta king</w>
TE ST</w>
T w
T rain</w>
T ouch</w>
T han</w>
T WI
T OO
T ON</w>
T OM
Ste p</w>
St even</w>
Sha w
Sh are</w>
Seri es</w>
Sc ene</w>
SPE CI
SIN CE</w>
SEAR CH</w>
SE T</w>
S. O.
S on</w>
S hot</w>
S ailor</w>
S MI
Ric o</w>
Ri de</w>
Re move</w>
Rad cliffe</w>
Ra dio
R it
R ing</w>
Qu it</w>
Pre tend</w>
Poo p</w>
Poo h</w>
Ph one</w>
PO IN
PART NER</w>
PAR T</w>
P is
P ay</w>
Oper a</w>
Off ice</w>
Oc tober</w>
OOOO OO
O ver
O B
N in
Mon roe</w>
Mon ica</w>
Mc D
ME ET</w>
Lou is</w>
Lo ving</w>
Li me</w>
LU V</w>
LMA O</w>
L ab
KI LL</w>
K han</w>
Jan et</w>
J ess</w>
In quire</w>
In ch</w>
I tunes</w>
I l
HI M
H it
H es</w>
H I</w>
Gra il</w>
Gr and</w>
Ger many</w>
Ger man</w>
Gentle men</w>
GIRL FRIEND</w>
GA ME</w>
For rest</w>
Flir ting</w>
FO L
FLI R
F lu
Eli zabeth</w>
EX C
E- MAIL</w>
E x</w>
E than</w>
E ET</w>
Dr ink</w>
De grassi</w>
DU MB</w>
DA YS</w>
D r</w>
D augh
D RA
Con an</w>
Col dplay</w>
Cla pton</w>
Cha mp
Ch at</w>
Cari bbean</w>
Car olina</w>
Car men</w>
Can adian</w>
Can ada</w>
C row</w>
C lear
C HAR
Boulev ard</w>
Bo ston</w>
Bever ly</w>
Be come</w>
B it</w>
B ing</w>
B LU
B IT
B ED</w>
Ax l</w>
Aqu a</w>
An dy</w>
Ale x
Ak on</w>
AWE SOME</w>
AN D
A manda</w>
A las</w>
A aliyah</w>
A LITY</w>
: 30</w>
8 00
7 5</w>
6 4</w>
2 pac</w>
10 th</w>
10 .
0 1</w>
/ he</w>
.com /
. she</w>
. good</w>
' e</w>
z en
ya k</w>
y' all</w>
y mond</w>
y m</w>
x ie</w>
www. yahoo.com</w>
win ter</w>
who a</w>
wat s</w>
wal ls</w>
wa x</w>
w th</w>
w ic
w d</w>
vo ic
vi be</w>
vent ure</w>
v ine</w>
v et</w>
uu uu
us .com</w>
up setting</w>
un successful</w>
un appealing</w>
um mmm</w>
ultimat um</w>
ul ts</w>
u te</w>
tur tle</w>
tt i</w>
too th</w>
tiv eness</w>
ti ent</w>
thre esome</w>
tho lic</w>
thin kin</w>
ther e
the e</w>
th ou</w>
temp er</w>
technic ally</w>
tain s</w>
ta x</w>
ta mp
ta ker</w>
ta ils</w>
ta g</w>
t ouring</w>
swee test</w>
supri se</w>
sun ny</w>
su x</w>
su ed</w>
stri kes</w>
stre ssed</w>
straight forward</w>
sti n</w>
sti ans</w>
stab bed</w>
st ep
st ea
spo ts</w>
sp oo
sp ank</w>
soooo ooo</w>
sit ter</w>
si mul
sen ds</w>
sarca stic</w>
sa ppy</w>
ro b</w>
ri gin
respect able</w>
remo te</w>
remin ding</w>
rema ined</w>
reje cts</w>
regu larly</w>
recei ves</w>
reali se</w>
re vol
re view</w>
re ty</w>
re sc
re conc
ra h</w>
r us
r out
quar ter</w>
qu ir
pu ke</w>
pronoun ced</w>
pronoun ce</w>
progra mming</w>
pretti er</w>
presen ted</w>
pp le</w>
pp ear</w>
po t</w>
pi st</w>
perio ds</w>
per si
pean ut</w>
pe do
passion ate</w>
par adi
pa pa</w>
p per
p an</w>
ous ness</w>
org ani
or o
or m</w>
or anges</w>
op ens</w>
ong side</w>
on y
omer ang</w>
om p
off ering</w>
od ds</w>
o '
nu dity</w>
nine teen</w>
na tional</w>
n irvana</w>
n ever
musc le</w>
mov ement</w>
min s</w>
men s</w>
me xic
me ta
me .com</w>
mat eri
m sn</w>
low card</w>
lo han</w>
listen er</w>
list ing</w>
li qu
la hom
l ane</w>
k it
jun gle</w>
jud g
jo sh</w>
j ug
j on</w>
j ay</w>
ittor rent</w>
investi gate</w>
investi g
instru ctions</w>
initi ate</w>
im a</w>
igh ty</w>
id ers</w>
i res</w>
hygi ene</w>
hy ster
hun ting</w>
hou ses</w>
hor ri
hon or</w>
homo sexuals</w>
ho op
he he
har dest</w>
han ded</w>
h r</w>
h ound</w>
gu lar</w>
gu essed</w>
gr ab
go spel</w>
gen cy</w>
ga ining</w>
g wen</w>
g lo
fun ds</w>
fri dge</w>
fre e.com</w>
fr ank
for med</w>
fon dness</w>
flat tering</w>
fin ger
fes tiv
fel latio</w>
fe es</w>
fast est</w>
fa ves</w>
fa king</w>
f red</w>
expla ins</w>
expla ined</w>
excla im
exce ed
exceed ingly</w>
ex change</w>
et ro
est s</w>
es a</w>
enti rety</w>
en to
en cour
employ ment</w>
el lite</w>
el and</w>
ear rings</w>
ear ned</w>
e- ma
e jac
dum best</w>
dro pped</w>
dre ssing</w>
do pe</w>
do ctors</w>
direc ted</w>
di ce</w>
dest ined</w>
descri bed</w>
des sert</w>
den ies</w>
dec line</w>
dea f</w>
dar ling</w>
d re</w>
d evi
d enti
d ats</w>
d ator</w>
d ant</w>
cur b</w>
cu tting</w>
cu sto
cru shes</w>
crit ical</w>
cre w</w>
cr acks</w>
cor por
coo ks</w>
continu ously</w>
continu ing</w>
con sci
con cur</w>
compu ters</w>
cli che</w>
clean er</w>
ci fer</w>
ci ara</w>
char lotte</w>
cha t
cell phone</w>
cas m</w>
c uss</w>
c is
bu ll
bu cket</w>
bri an</w>
break -up</w>
box es</w>
bott les</w>
bon us</w>
bloo m</w>
bloo d
blo ws</w>
bel oved</w>
before hand</w>
be having</w>
bag gage</w>
b li
b att
at t</w>
assu mption</w>
assu med</w>
aqu arius</w>
an n</w>
am in</w>
al ongside</w>
adm itted</w>
addi cting</w>
ad am</w>
acquaint ances</w>
ac id</w>
aaaa aaaa
a vid</w>
____ ____
__ _</w>
Y ing</w>
Y O</w>
Y ER</w>
Wol verine</w>
Wi fe</w>
Wat son</w>
WAL K</w>
W o
W OO
Vin cent</w>
V el
V IR
U p
U gly</w>
Tur ner</w>
Termin ator</w>
Tar get</w>
Ta urus</w>
TAL KING</w>
TA L</w>
T yr
T EN
T .</w>
Swi m</w>
Spr inger</w>
Sin ger</w>
Sin atra</w>
Sil ver</w>
Shan non</w>
SW EET</w>
SV U</w>
ST EA
SERI OUS</w>
S w
S even</w>
S cream</w>
S ag
S UN
S M
S G</w>
Rus sell</w>
Rob bie</w>
Ri der</w>
Reli ent</w>
Recor ds</w>
Re d
REA SON</w>
R ick</w>
R EN</w>
Ques tions</w>
Pro f
Po ds</w>
Pis ces</w>
Pho to
Phi lippines</w>
Pe pper</w>
PRO TE
PAR IS</w>
P ra
P lat
P am</w>
P LE</w>
Ol der</w>
OLD ER</w>
O K
Nic ky</w>
N Y
Mon t
Mari a</w>
Ma j
MIN E</w>
M id
Lo gan</w>
Lin coln</w>
Li st
Li ght</w>
Le on
Lar ry</w>
La tin</w>
LA DY</w>
L ot</w>
L ong
L C</w>
Kin da</w>
Kil lers</w>
Ke ys</w>
Kar en</w>
Inv ite</w>
Imag es</w>
I t
I an</w>
Ho stel</w>
Hen ry</w>
Hea ther</w>
HO P</w>
H um
H and</w>
H P</w>
Gu ide</w>
Grand pa</w>
Gen eral</w>
Gar th</w>
G rease</w>
G ene</w>
Foo ls</w>
FRIEN D
FOR EVER</w>
F ra
Euro pe
El len</w>
Eag les</w>
EB AY</w>
EA SY</w>
E m</w>
E l</w>
E YES</w>
Dum ber</w>
Defin ately</w>
De an</w>
DAN CE</w>
DA UGH
D ru
D er
D RU
Ch ina</w>
Ch ea
CK ED</w>
C ancer</w>
C Y</w>
C R
C ES</w>
C -
Bloo d</w>
Be tween</w>
BOR N</w>
BI G
BE T
B ond</w>
B er
B M
B IR
B B</w>
Aw esome</w>
Ar my</w>
An atomy</w>
Amaz on.com</w>
Ab dul</w>
AS KING</w>
AS KED</w>
AR Y</w>
AO L</w>
AMA ZING</w>
AL MOST</w>
9 5
7 .
6 0s</w>
6 .
4 00</w>
198 3</w>
.I. P</w>
.. so</w>
.. she</w>
.. if</w>
. u</w>
. then</w>
. or</w>
. no</w>
. do</w>
- off</w>
- D</w>
zz le</w>
zar re</w>
z y
z i</w>
www. mp3
www. bearshare.com</w>
wi d
whis per</w>
whis ky</w>
wher ever</w>
wh omever</w>
web cam</w>
wa in</w>
wa gon</w>
w ers</w>
vul gar</w>
vol un
vi al</w>
ver t</w>
val id</w>
vacu um</w>
vac y</w>
v age</w>
un clear</w>
u x</w>
u tter
u red</w>
tun ed</w>
tr ance</w>
tor is</w>
tor i
ton ite</w>
to ge
thum b</w>
thro wn</w>
ther a
ther ..</w>
th x</w>
th ang</w>
ten sion</w>
ta to</w>
ta r</w>
t ort
sympa thize</w>
supp er</w>
sun shine</w>
sul t</w>
sugge sted</w>
sub mit</w>
stur bed</w>
stere o</w>
stat ements</w>
st eve</w>
st een</w>
st an</w>
sp ite</w>
sp a</w>
so le</w>
so -
sli ghtest</w>
six ty</w>
simil arly</w>
sign al</w>
si ster
shoo ting</w>
shar k</w>
sha ved</w>
sha m
sh it
sh iny</w>
sh board</w>
sh *t</w>
ses sion</w>
ser ves</w>
sequ els</w>
sep tember</w>
sele ctions</w>
sele cted</w>
se t
se per
sar casm</w>
sal ad</w>
sa il
s. net</w>
s sic</w>
s nor
s ly</w>
s _
rout ine</w>
rock in</w>
ro ll
ro d</w>
ro cking</w>
ri sky</w>
repe ated</w>
remin is
rela tive</w>
regi ster</w>
recomm ended</w>
rec eption</w>
re un
re pa
re married</w>
re dom</w>
re ck
re bound</w>
re ar
ra ven</w>
r ant</w>
pul ls</w>
pu n</w>
pri vacy</w>
pri mary</w>
pri ces</w>
pre g
pre cha
pow ers</w>
pos ers</w>
po lic
polic y</w>
po lar</w>
plac ing</w>
pir ate</w>
pil low</w>
pic ky</w>
phi l</w>
per sist</w>
pear l</w>
pe y</w>
pe st</w>
part ner
par take</w>
par ks</w>
p. s</w>
ou trage
ou ge</w>
ori entation</w>
on es
ol ly</w>
off ence</w>
oc re</w>
ob ile</w>
nu n</w>
notic es</w>
no tebook</w>
nic est</w>
ni fe</w>
ner dy</w>
mur der
mu st
mil k
mi d-
meta ph
medi ocre</w>
medi cation</w>
mean time</w>
mea sure</w>
mar tin</w>
manipul ate</w>
ma m
ma g</w>
lol z</w>
lo pez</w>
li bra</w>
leg it
legit imate</w>
lahom a</w>
la yed</w>
la unch</w>
l or</w>
l one</w>
kne e</w>
kin dly</w>
ki dd
k yo</w>
k ki</w>
k ir
ju ly</w>
j immy</w>
j et</w>
j est</w>
j ane</w>
irrit ated</w>
invol ving</w>
inv est</w>
intrigu ing</w>
intre st</w>
inter f
interf ere</w>
inten tionally</w>
inju red</w>
inf ant</w>
inc reas
inc est</w>
in tu
in quired</w>
in ny</w>
in car
i zed</w>
i fic</w>
i `m</w>
i '
hu m</w>
hor ses</w>
ho las</w>
hipp ies</w>
her ..</w>
hel la</w>
head ache</w>
he h</w>
he als</w>
haha ha
ha v
ha bits</w>
gre et</w>
gor illa</w>
goose .com</w>
goo dies</w>
gi ggle</w>
ght ful</w>
gee ky</w>
gar ments</w>
gar age</w>
gad gets</w>
ga ze</w>
ga y
g t</w>
g ling</w>
g les</w>
g il
g aming</w>
friend ships</w>
fla ws</w>
figh ter</w>
fic i
favor able</w>
fav s</w>
fac ing</w>
f th</w>
f actory</w>
f actors</w>
exi sting</w>
ex- girlfriend</w>
ex tra
ex pre
et t</w>
ern al</w>
eri es</w>
er -
eng ag
en vir
en de
electr onic</w>
el ope</w>
ei ved</w>
ee e</w>
ed ition</w>
dro pping</w>
don no</w>
do w
disc s</w>
dinosa ur</w>
di et</w>
dea d
danc ers</w>
d son</w>
d an</w>
ct ac
cro ssing</w>
cra igs
cr ack
cou pon</w>
copi ed</w>
cool goose.com</w>
conver sing</w>
con tra
con science</w>
con duct</w>
compar ing</w>
compani es</w>
com et</w>
com end</w>
co- worker</w>
co ke</w>
cigare ttes</w>
cigare tte</w>
cheer leader</w>
char med</w>
challeng ing</w>
cha sing</w>
ch erry</w>
certi fic
car t</w>
calyp se</w>
c ities</w>
c ently</w>
bu cky</w>
bri des
br inging</w>
book store</w>
bl essed</w>
bi- sexual</w>
ber ries</w>
beha ves</w>
be ef</w>
b am</w>
aw w</w>
aud ition</w>
attemp ts</w>
at ar</w>
associ ated</w>
asser tive</w>
arri ves</w>
argu ing</w>
ar se</w>
app lies</w>
app li
am oun
al ley</w>
al i</w>
al ba</w>
ag ian</w>
adm itting</w>
actu ality</w>
ab sur
a iring</w>
a bun
Wor th</w>
Wh itney</w>
Wal ker</w>
WE B
W it</w>
W ing</w>
W el
W IN</w>
Vic toria</w>
U r</w>
U AL</w>
Ty pically</w>
Twi sted</w>
Thri ller</w>
Thi r
Th under
TRI ED</w>
TAL LY</w>
Su pp
St ate</w>
Spo t</w>
Sk yn
Sex ual</w>
Secon dly</w>
Scre w</w>
SON S</w>
SECON D</w>
SCAR ED</w>
SA YING</w>
S ka</w>
S ith</w>
S hes</w>
S ally</w>
S LA
Ro ger</w>
Ro bo
Re demption</w>
Rac er</w>
RA P</w>
R id
R espe
Qu e
Pro duc
Pho enix</w>
Phi lli
Pep si</w>
Pan ther</w>
PI C
P op
P age</w>
P OR
OOOOOOOO OOOOOOOO
O sa
Ne gative</w>
Nat asha</w>
Nat alie</w>
Na than</w>
NE Y</w>
N ano</w>
N C</w>
Mur der</w>
Mon day</w>
Mic helle</w>
McD reamy</w>
Mari e</w>
Mar vin</w>
Mar ry</w>
Ma il</w>
M us
M ach
Lu dacris</w>
Lo ved</w>
Li onel</w>
Li mewire.com</w>
Li fe
Lau gh</w>
Lar ge</w>
LYRI CS</w>
LOV ING</w>
LO W
LI L</w>
L es</w>
L aw
L at
L ag
L F</w>
L ER</w>
K agome</w>
K NEW</w>
Jud as</w>
Jo an</w>
Ja ws</w>
J am
INTEREST ED</w>
IN G
IMD B
I ra
I DI
Hi ps</w>
Han nah</w>
HIM SELF</w>
HAPPEN S</w>
HA IR</w>
HA HA</w>
H y
Go es</w>
Girl friend</w>
Ger ard</w>
Ge e</w>
GE ST</w>
G old</w>
G eisha</w>
G al
G .
Fu turama</w>
Fran ken
Fe derline</w>
Fan ta
Fal ling</w>
FEE LS</w>
FA VOR
F red
F oo</w>
F ic
F **
Euro pe</w>
Emer ald</w>
ET C</w>
Di sturbed</w>
Dest iny</w>
Dem i</w>
DU MP</w>
DOU B
DES ER
DA DDY</w>
D ev
D ana</w>
D IR
Cro sby</w>
Comp le
Com es</w>
Co dy</w>
Clo wn</w>
Clo oney</w>
Char lize</w>
Cha p
Car l</w>
CHI LD
CHA T</w>
C loser</w>
C li
C assi
C ab
C UR
Bur ger</w>
Bul let</w>
Bul l
Bu ble</w>
Britt any</w>
Bra dy</w>
Blo ckbuster</w>
Bl ind</w>
Bed ingfield</w>
BOR ING</w>
B lock</w>
B ab
Ar thur</w>
Ana kin</w>
An ton
After wards</w>
Adul t</w>
AN CE</w>
AL BU
AC TUALLY</w>
AC T
A wards</w>
A W
5 7</w>
3 g
24 -
200 7</w>
2 gether</w>
198 8</w>
1 20</w>
0 5</w>
.. that</w>
.. LOL</w>
. why</w>
. LOL</w>
' the</w>
' D</w>
z nor</w>
youtu be</w>
yon es</w>
yn g</w>
y ers</w>
x ation</w>
www. ra
www. m
www. amazon.com</w>
ww ww
wor n</w>
woo ds</w>
won ders</w>
wom en
wom ans</w>
wi fe
whi pped</w>
wer e
we e</w>
war ning</w>
wa ii</w>
wa ht</w>
w y</w>
w we</w>
w ot</w>
w oo</w>
vo red</w>
vio lin</w>
vin yl</w>
vibr ator</w>
ve heart</w>
van illa</w>
v d</w>
v ation</w>
v amp
utili zing</w>
up date</w>
un familiar</w>
ulti mate</w>
u gh</w>
u f
u d</w>
tun ing</w>
tu pac</w>
train ing</w>
train ed</w>
tr yed</w>
too o</w>
too l
ti ms</w>
ti mes
ti ally</w>
thous ands</w>
thera pist</w>
ther spoon</w>
thank ful</w>
th ighs</w>
th fully</w>
temp ted</w>
te ch</w>
te aching</w>
tain ty</w>
ta xi</w>
t s.com</w>
t ary</w>
t ank</w>
sw inging</w>
sur mise</w>
sur geon</w>
suppo sedly</w>
supp ly</w>
super ficial</w>
super b</w>
subsequ ently</w>
stu dies</w>
stru ck</w>
stri ppers</w>
stre tch</w>
stre am</w>
ster .com</w>
star ters</w>
st all</w>
spe ctac
sp y
sp ou
sp il
so los</w>
smoo thly</w>
sm iled</w>
sli de</w>
sle eps</w>
sk y
sit com</w>
sin ger
simul taneously</w>
si bling</w>
shri mp</w>
sha king</w>
sh r
sh man</w>
sh ares</w>
sh ank</w>
seri al</w>
sen sation</w>
se cure</w>
sc ari
sal es</w>
sa me
s word</w>
s ling</w>
s ke
s ity</w>
s eal</w>
s bur
s ally</w>
s ab
ron ic
ro lled</w>
ri us</w>
ri sing</w>
repu table</w>
rep ul
ren tice</w>
rec ep
re sort</w>
re solved</w>
re fre
re all</w>
ra ped</w>
ra ining</w>
r oughly</w>
r am</w>
quar epants</w>
pun ks</w>
pul ling</w>
pu mp
pu erto</w>
prote ctive</w>
pro ves</w>
pro jects</w>
pri orities</w>
pre par
pre acher</w>
por tray</w>
pop s</w>
poli tely</w>
po tato</w>
phi le</w>
ph y
peop le
particip ating</w>
pa inted</w>
p ond</w>
p it
outrage ous</w>
out ..</w>
oun ge</w>
oun ded</w>
os car</w>
or lando</w>
or er</w>
open ed</w>
oo ps</w>
on ica</w>
on ..</w>
ol d-
occur rence</w>
obses sion</w>
ob served</w>
o. k</w>
o zzy</w>
o hio</w>
o c</w>
ni ghtly</w>
ne st</w>
ne phe
ne gle
nar uto</w>
na me
n ut</w>
mur dered</w>
mu late</w>
mu d</w>
mu ch
mou ths</w>
mon day</w>
mo le</w>
mid get</w>
meaning ful</w>
mat rix</w>
masturb ating</w>
man son</w>
man ager</w>
m n</w>
lu vs</w>
load ing</w>
lo so
lo oooo
lip stick</w>
ling erie</w>
lif ting</w>
lic king</w>
li cks</w>
li ber
la you
la wn</w>
la h</w>
kid na
ka therine</w>
k anye</w>
jun e</w>
jo ck</w>
j j
itt ment</w>
it ll</w>
it ive</w>
ir ts</w>
inv iting</w>
instrum ents</w>
ing y</w>
inci dent</w>
in qui
in ge</w>
in er</w>
impro ved</w>
idio tic</w>
id al</w>
ic king</w>
i si
hu mili
house hold</w>
horosco pe</w>
hol la</w>
him ..</w>
hhhh hh</w>
hal en</w>
h eights</w>
guaran te
gri ll</w>
grand pa</w>
gr rr
gol d
g mail.com</w>
g lu
g ary</w>
fr m</w>
for nic
for ms</w>
foc using</w>
flat tered</w>
fe aring</w>
far mer</w>
far m</w>
f itting</w>
f in</w>
f es</w>
f are</w>
f ab
expl oring</w>
ex tr
ex pi
ex hi
ex es</w>
evol ver</w>
eth eless</w>
etc ..</w>
es cor
err ors</w>
eng land</w>
ena mored</w>
en ed</w>
en ders</w>
ema iled</w>
ell er</w>
elev ator</w>
el ement</w>
el .com</w>
ed dy</w>
ear th
e ena</w>
e c
dro me</w>
dri ft</w>
down s</w>
disgu sted</w>
dis k</w>
dig ital</w>
di se</w>
di al</w>
destro y</w>
de test</w>
de partment</w>
da ds</w>
d ge
d anger</w>
d al</w>
d al
custom er</w>
curi osity</w>
cur y</w>
cur vy</w>
cu d</w>
cr acked</w>
cou gh
copy right</w>
coo ked</w>
cond ition</w>
concer ns</w>
con tr
con sent</w>
comple ting</w>
comedi ans</w>
comedi an</w>
com posed</w>
co in</w>
co ffin</w>
co caine</w>
ci an</w>
chu bby</w>
cho ke</w>
chi me</w>
ch ina</w>
ch i</w>
cer tainty</w>
cer e
ce man</w>
ca p</w>
ca b</w>
c iti
bu sted</w>
bu st</w>
bu nny</w>
boo m</w>
boo b</w>
bla de</w>
beac use</w>
beac ause</w>
bar bie</w>
bang ing</w>
bac on</w>
b y
b ound
b id</w>
aud itions</w>
au gust</w>
att or
astro logical</w>
art work</w>
ar chi
anti -
ani a</w>
and om
an us</w>
al ly
ag ger</w>
addi ctive</w>
addi ction</w>
add itionally</w>
ad ds</w>
ad ding</w>
ad ap
ad am
acquaint ance</w>
abu sed</w>
absur d</w>
ab sor
ab c</w>
aa .com</w>
a my</w>
a kin</w>
a im</w>
^ ^</w>
Ze pplin</w>
YouTu be</w>
YE A</w>
Wa iting</w>
WEDD ING</w>
W IT</w>
W -
V ent
V ED</w>
V CR</w>
Un like</w>
U CK</w>
Tyr a</w>
Tri ck</w>
Tran s
Tor onto</w>
Ther on</w>
TR YING</w>
TR A
TI C</w>
TH REE</w>
T ool</w>
T eddy</w>
T eam</w>
T REA
T CH</w>
Surpri se</w>
Sun shine</w>
Sta tion</w>
Spr ing</w>
Sm ells</w>
Shan ia</w>
Shan e</w>
Se ek</w>
Se a</w>
STOR Y</w>
STA R</w>
SS ING</w>
SA W</w>
SA D</w>
S us
S t</w>
S quarepants</w>
S op
S in</w>
S ig
S et</w>
S an
S ad</w>
S MA
S K
S END</w>
Ru b
Ro seanne</w>
Rit chie</w>
R evolver</w>
R es
R R
R OO
R .I.P</w>
Pr ay</w>
Po int</w>
Par ker</w>
POSSI BLE</w>
POIN TS</w>
PO WER</w>
PO INT</w>
PAR ENTS</w>
P. O.
P ol
P ad
Os bourne</w>
Or ange</w>
Ok lahoma</w>
OP IN
O. C</w>
N WA</w>
Mor rison</w>
Mis sy</w>
Mer ely</w>
Me lissa</w>
Mc P
Mat erial</w>
Mat ch.com</w>
Mas sac
Ma yer</w>
Ma x</w>
Ma kes</w>
MAR RY</w>
M ighty</w>
M M</w>
Loc ke</w>
List ening</w>
Leon ardo</w>
Leg end</w>
Le ts</w>
Le ppard</w>
La ke</w>
LO SER</w>
L ust</w>
L or
L i</w>
L an
Ken ne
KI CK</w>
K ey</w>
K entucky</w>
K EN</w>
K C</w>
J unior</w>
J ump</w>
J on
Inter est
In side</w>
IN DI
I mp
Hun ter</w>
Hit ler</w>
Hea ds</w>
Haw k</w>
H ero</w>
H ear</w>
H ank</w>
Gra b</w>
Goo fy</w>
GO ES</w>
G ru
G row</w>
G ONE</w>
G N</w>
Fred die</w>
Franken stein</w>
Fo ster</w>
Figh ting</w>
Fic tion</w>
Fem ale</w>
FE W</w>
F ru
F low</w>
F AT</w>
F AN</w>
EN ING</w>
E- mail</w>
E mp
E dge</w>
E .</w>
Dis c</w>
De ci
Dam ned</w>
Dal las</w>
Da wn</w>
DIFFER ENT</w>
DA D</w>
D om
D el</w>
D av
D ani
D '
Cur tis</w>
Consi dering</w>
Colle ge</w>
Cla ssic</w>
Cla sh</w>
Ch ee
Cal m</w>
CHILD REN</w>
CAR ES</w>
C her</w>
C ele
C ar</w>
C amer
C am
C age</w>
C T
C RU
C ED</w>
Bur ton</w>
Bu tter
Broad way</w>
Br and
Boo ty</w>
Boo gie</w>
Blu e
BOO K</w>
BET WEEN</w>
B un
B ook</w>
B enny</w>
B ass</w>
B LIN
Av atar</w>
As king</w>
Anton io</w>
Al one</w>
A res</w>
A dv
A H</w>
6 00</w>
5 9</w>
5 4</w>
198 2</w>
197 2</w>
14 th</w>
10 6</w>
10 ,000</w>
.com .
.. u</w>
.. do</w>
. thats</w>
- Mart</w>
, 000
zz fest</w>
z ombie</w>
z ie</w>
you 'r</w>
y cle</w>
y ang</w>
x anga</w>
www. guitar
wr ink
woo den</w>
who res</w>
whe el
wh oo
wh ich
weir do</w>
wea pons</w>
we igh
wall paper</w>
w rapped</w>
w l
w is</w>
ver sal</w>
ven s</w>
ven ile</w>
us ally</w>
up sets</w>
under garments</w>
un wise</w>
un necessary</w>
un expected</w>
tri via</w>
tri cky</w>
tren dy</w>
trans fer</w>
ton y</w>
to days</w>
tit anic</w>
ti ck</w>
ti an</w>
thri ll</w>
thing ..</w>
ther ing</w>
th ongs</w>
th -
terri fic</w>
temper ature</w>
tel lin</w>
tel e
techni que</w>
tech no
ta d</w>
sw ings</w>
sur name</w>
su res</w>
su ited</w>
su ck
stro ke</w>
stri ct</w>
stra w
str at
ster one</w>
star ed</w>
spon gebob</w>
sp er</w>
sor y</w>
sol ving</w>
snea ky</w>
sn ug
slu ts</w>
sla pping</w>
si zing</w>
si vely</w>
she ep</w>
she /he</w>
sha kira</w>
sha dy</w>
sen si
se perate</w>
sc ent</w>
sat ellite</w>
s kill</w>
s /</w>
rub b
ru shing</w>
ru shed</w>
ru s</w>
ro tten</w>
ro l</w>
ro ad
ring tones</w>
ri bs</w>
rhy me</w>
restra ining</w>
requi rement</w>
reli able</w>
relea ses</w>
rela tives</w>
rela i</w>
refle ction</w>
red .com</w>
rec order</w>
reali zing</w>
real tionship</w>
re volu
re tain</w>
re phrase</w>
re fri
re bel
r ors</w>
r ina</w>
r andom
random ly</w>
quo tes</w>
qui etly</w>
question ing</w>
quar ters</w>
pur po
puni shment</w>
pub lished</w>
pu shy</w>
pu p
pu berty</w>
prob ally</w>
pri marily</w>
pres ently</w>
pre cis
precis ely</w>
prac tically</w>
pra ying</w>
pr inted</w>
por ch</w>
poli tics</w>
po lish</w>
po ems</w>
po ds</w>
plu gged</w>
pleas antly</w>
play station</w>
play ful</w>
plat onic</w>
pi lot</w>
phe no
ph ras
persu ade</w>
per taining</w>
pedo phile</w>
pe te</w>
pe tals</w>
pe pper</w>
passion ately</w>
p rude</w>
p ar</w>
out going</w>
oo h</w>
ony mous</w>
on ing</w>
om bies</w>
ob jects</w>
o deon</w>
nit ure</w>
ni es</w>
net flix</w>
near by</w>
ne -
n ings</w>
n eva</w>
musi cally</w>
mp his</w>
mo del
mo cr
mmmm mm</w>
min d
mic heal</w>
mi one</w>
mer ly</w>
mer chan
merchan dise</w>
mel t</w>
mel ody</w>
mel low</w>
medic ine</w>
meaning less</w>
me als</w>
matu red</w>
man ual</w>
ma xi
ma sk</w>
ma p</w>
m ort
m aby</w>
lu st
long -
li ve
li sa</w>
le f
le back</w>
la ffy</w>
la dder</w>
kil let</w>
k orean</w>
k itty</w>
k .
jud ges</w>
jel ous</w>
ja mie</w>
j /k</w>
is sa</w>
insi sted</w>
ing ..
indi cation</w>
in visible</w>
in front</w>
in depen
imp lying</w>
im ber
ill ness</w>
ignor ance</w>
i me</w>
i ed</w>
hy po
hum ble</w>
hoop z</w>
homo sexuality</w>
hom o</w>
hom er</w>
ho es</w>
hi gan</w>
her pes</w>
he ed</w>
ha p
h s</w>
h .com</w>
guitar .com</w>
gu est</w>
gu ess
gru dge</w>
graph s</w>
gr at
goose bumps</w>
goo se</w>
gl ance</w>
gi bson</w>
gen e</w>
ge sture</w>
g ates</w>
g aby
frustr ating</w>
friend /
fri ed</w>
fran chi
for k</w>
foo t
fol k</w>
flo ats</w>
fli ght</w>
fle w</w>
fla vor</w>
fir mly</w>
fin ances</w>
fi st</w>
fee lin</w>
fa ults</w>
fa g</w>
ex it</w>
every 1</w>
ev ing</w>
ev anescence</w>
est yle</w>
es tic</w>
es sion</w>
er /
envir on
entertain er</w>
engag ement</w>
endea vors</w>
end ings</w>
em ma</w>
el u
el abor
elabor ate</w>
eeee eeee
edu ca
ed ited</w>
e- bay</w>
e pers</w>
e ks</w>
e in</w>
du o</w>
du m</w>
dro ol
dre s
dre amed</w>
down town</w>
deta iled</w>
der n</w>
der i
depres sion</w>
demon s</w>
de man
de er</w>
de arly</w>
de an</w>
danc ed</w>
d les</w>
d k</w>
crit eria</w>
cre ep</w>
cre ator</w>
cra wling</w>
cr y
contin ually</w>
consi sts</w>
conserv ative</w>
commit ting</w>
co ck
clo sely</w>
clim b</w>
cli toris</w>
claim ed</w>
cir cles</w>
chri st</w>
chick ens</w>
cha irs</w>
cen sored</w>
care full</w>
cap ac
ca fe</w>
c ke
c entered</w>
butter fly</w>
butt ons</w>
bu ted</w>
bu lly</w>
bu is
brow ser</w>
brea ker</w>
bre vi
bre e
br itt
bott oms</w>
boar d.com</w>
bo redom</w>
bil l
bi zarre</w>
bi o</w>
bet ro
bel ong
be half</w>
be for</w>
ban jo</w>
ba ke</w>
b ou
b iting</w>
b .
aw es
attrac ts</w>
attrac tiveness</w>
at able</w>
assu red</w>
assa ult</w>
ask je
appro aching</w>
appro aches</w>
appreci ates</w>
appo intment</w>
appear ence</w>
appear ances</w>
any 1</w>
anti cip
announ ced</w>
anno ys</w>
ani an</w>
ang ely</w>
an ge
an atomy</w>
am ela</w>
ali st</w>
al ittle</w>
after all</w>
afri ca</w>
addi cts</w>
ac o</w>
ac ey</w>
a vi
a sa
a me</w>
a ke</w>
a is
Z Z</w>
Z A
Yahoo .com</w>
YO N
Y ea
X box</w>
Wel come</w>
Wal -Mart</w>
WOR D</w>
WEE K</w>
W OULDNT</w>
W EAR</w>
W B</w>
V ER</w>
US ING</w>
UNI CA
U GHT</w>
U GH</w>
Tru ly</w>
To tally</w>
Tit le</w>
TO TALLY</w>
TO P</w>
THIN KING</w>
TH A</w>
T own</w>
T emp
T OU
T ON
Swee tie</w>
Sun days</w>
Spir it</w>
Sm all</w>
Shi r
Shaw shank</w>
SU PER</w>
SU CK</w>
SP ON
SIN GER</w>
SE CRE
S wing</w>
S tran
S later</w>
S hel
S LY</w>
S HAR
S ENT</w>
S ..</w>
Ro y</w>
Ro sie</w>
Respe ct</w>
Re search</w>
Re pe
Rap pers</w>
Ra ymond</w>
R angers</w>
R an
Pul p</w>
Plu to</w>
Pho ebe</w>
PO LI
P orn</w>
P lan
P ING</w>
Osa ma</w>
Ob tain</w>
OU D</w>
OF FI
O -
No te</w>
Night mare</w>
Na ked</w>
N iro</w>
N N</w>
My self</w>
Mr .
Mic heal</w>
Mi ddle</w>
Mi a</w>
Matthe w</w>
Massac re</w>
Mam ma</w>
MAR T</w>
MA S</w>
MA L</w>
M oo
M ir
M ile</w>
M X</w>
Lo is</w>
Lin d
Li ght
LU CKY</w>
LL ED</w>
LI N</w>
LA TER</w>
LA ME</w>
L ow</w>
L loyd</w>
L ate</w>
Ken shin</w>
K orean</w>
K it
K ansas</w>
K EY</w>
Jun gle</w>
Jo y</w>
Jo kes</w>
Jer sey</w>
Jen ny</w>
Je an</w>
J ose</w>
Is land</w>
Ira q</w>
Indi ana</w>
In credi
IN K</w>
IN FOR
IN A</w>
IMDB .com</w>
IDI OT</w>
I S
Hur ts</w>
Hear ts</w>
He ath</w>
Ha ir</w>
Gre ek</w>
Gol d
Gener ally</w>
Gabri el</w>
GA L</w>
G l
G inger</w>
G AS</w>
Fri end
Franchi ze</w>
FREA K</w>
FO X</w>
FAVOR ITE</w>
FA ST</w>
F our
F i</w>
F el
F X</w>
F O</w>
F *
Ev anescence</w>
En sure</w>
EX PERI
E r
E ne
E YE</w>
Drag on
Do or</w>
Diam ond</w>
Dar ling</w>
DREA M</w>
DIR TY</w>
DEFIN IT
D AR
Cour t</w>
Col or</w>
Col lins</w>
Co w
Co ast</w>
Ch er
Car ry</w>
Camer on</w>
CU TE</w>
CO L
CHEA TER</w>
CE PT</w>
CAR E
C ount</w>
C ook</w>
C han</w>
C ents</w>
C enter</w>
C atch</w>
C BS</w>
Bu sta</w>
Bu ck
Bro oke</w>
Be yond</w>
Be e</w>
BRO THER</w>
B au
B art</w>
B ar</w>
B ad
B O</w>
B /
At trac
Apo calypse</w>
Ali cia</w>
Ac cept</w>
AT L</w>
ANY MORE</w>
AN G
AG REE</w>
AC TION</w>
A z
= D</w>
: 0</w>
9 0s</w>
9 /
8 9</w>
7 7</w>
6 7
6 6
6 '
5 5
4 1</w>
3 3
2 P</w>
199 3</w>
14 -
1 -</w>
. my</w>
. is</w>
z il</w>
z .com</w>
you thful</w>
you -</w>
year s-
years- old</w>
y uck</w>
y i</w>
y es
y ay</w>
www. letssingit.com</w>
worth less</w>
wis dom</w>
win k
wi g</w>
wi fes</w>
whis key</w>
which ever</w>
wher eas</w>
wh it
web page</w>
we ighs</w>
war ri
war n</w>
wanna be</w>
vol ta</w>
vic tims</w>
ver ted</w>
val ry</w>
v ate</w>
v as
ur ally</w>
up front</w>
up coming</w>
uni verse</w>
uni form</w>
under world</w>
uncond itional</w>
un wanted</w>
un ts</w>
un married</w>
un ky</w>
un es.com</w>
ulti mately</w>
ul es</w>
u k
u es</w>
u .
tu red</w>
tri vial</w>
treas ure</w>
tr ing</w>
tou ri
tou ches</w>
tort ure</w>
tisti cal</w>
ti m
ti fied</w>
thu gs</w>
ther ed</w>
them ..</w>
th om</w>
th ar
termin ate</w>
tel ev
te sto
testo sterone</w>
te h</w>
te er</w>
ta ffy</w>
t ric
t asks</w>
t ard</w>
syn drome</w>
symbo l</w>
swee ty</w>
swe et
supri sed</w>
sum one</w>
suffici ently</w>
suff ering</w>
suff ered</w>
sub stance</w>
su mm
su cker</w>
stupi dest</w>
stun ts</w>
stre ss
stress ful</w>
stra tion</w>
stitu te</w>
sti cker</w>
ster o
ste pped</w>
stan ts</w>
sta steful</w>
st d</w>
st ain</w>
spoo ky</w>
spi res</w>
speci es</w>
sp aces</w>
sou thern</w>
so ..</w>
sno w
sla m</w>
sk it</w>
sk irts</w>
sk el
sin k</w>
si gh</w>
sh ville</w>
sh ore</w>
sh o</w>
sh ee
ser ving</w>
sequ ence</w>
see ds</w>
sea s</w>
se ats</w>
scre ams</w>
scrat ching</w>
sci enti
satisf ying</w>
samp le</w>
sal es
sail or</w>
s me
s m</w>
s ate</w>
s ant
rubb ish</w>
roy al</w>
ronic les</w>
ro of</w>
ri ch
resem bl
request ed</w>
refri ger
recogni zed</w>
reck on</w>
re ward</w>
re sume</w>
re sent</w>
re present</w>
re placed</w>
re ha
ra ping</w>
ra m
ra d</w>
r abia</w>
question ..</w>
pus sycat</w>
pu ff</w>
promis es</w>
pro fit</w>
pri ck</w>
premi ere</w>
pop ulation</w>
poin ting</w>
plea sur
pl ine</w>
pick up</w>
pick -up</w>
perc us
perc eption</w>
per t</w>
pen ises</w>
part ying</w>
par a
pa ins</w>
p sy</w>
p our</w>
p her</w>
p are</w>
p acked</w>
overwhel ming</w>
out door</w>
opti mis
optimis tic</w>
op o
op lin</w>
op h
oo oh</w>
on k</w>
on ist</w>
om ed</w>
off line</w>
obse ssive</w>
o ked</w>
num b</w>
nor ris</w>
no pe
no e</w>
no -
ni gg
ner ed</w>
nee dy</w>
near est</w>
ne e</w>
nag ging</w>
na tive</w>
na po
n as</w>
n an
n al</w>
n ab
mu ff
mor ally</w>
moo dy</w>
mole ster</w>
mo aning</w>
mm ys</w>
micro phone</w>
mi stress</w>
mi a</w>
men d
mat t</w>
mar tial</w>
mar k
mar ilyn</w>
man uf
m oun
m one</w>
m .</w>
m -
lu tion</w>
lov able</w>
loo sing</w>
lol ..</w>
lo t
lo oo
lo cker</w>
lo cations</w>
ll ll
li ghtly</w>
le y
le tt</w>
laun ch.com</w>
la ys</w>
la sting</w>
l acks</w>
l .com</w>
l .
kno cking</w>
kn w</w>
kic kin</w>
keep er</w>
k ast</w>
ju z</w>
joh nson</w>
j e</w>
j ar</w>
j an</w>
j ah</w>
itt sbur
itt arius</w>
it ude</w>
it amin</w>
is ..</w>
inter ru
inter fer
inst antly</w>
ins ale</w>
incar cer
in um</w>
in te
in sight</w>
in love</w>
imp act</w>
ic idal</w>
i se
i f
i Pods</w>
hu gging</w>
ho w
ho st
ho pe
ho ckey</w>
hi des</w>
hi ckey</w>
her/ him</w>
her oes</w>
heavi er</w>
hea ding</w>
haw k</w>
hat red</w>
har mon
happ iest</w>
hand ling</w>
half -
ha y</w>
ha ss
h rs</w>
h em</w>
h ei
guitari sts</w>
gu ests</w>
grrr s</w>
green er</w>
gr rr</w>
go dd
genit alia</w>
ge tic</w>
g ona</w>
g loves</w>
g i</w>
fu zzy</w>
fru ity</w>
frequ ent</w>
fre ely</w>
frank ly</w>
fr ag
for th
for mers</w>
for free.com</w>
fir st
fil med</w>
fel las</w>
fea ther</w>
fa thom</w>
fa b</w>
f ly
f loyd</w>
f loo
excep tionally</w>
es ses</w>
es ney</w>
es cal
es -</w>
er ate</w>
ep le</w>
ep han
ele ct</w>
el ds</w>
eigh ties</w>
ego tistical</w>
eg y</w>
educa tional</w>
e. g</w>
e ww</w>
e tern
e fron</w>
e _
du p
dro ol</w>
dres ser</w>
do ..</w>
disc ri
disa ppear</w>
dis ci
direc tory</w>
di ve</w>
di stasteful</w>
di ers</w>
di ddy</w>
di c</w>
di a.com</w>
devo ted</w>
deli very</w>
defin ite</w>
de th</w>
de e
de bt</w>
de -
da h</w>
d ye</w>
d oo
d ition</w>
d ar</w>
d ad
cy cle</w>
cur ves</w>
cu p
ct ric</w>
cro ss
cow boys</w>
coun ty</w>
coun c
conveni ence</w>
consi ders</w>
con vic
con temp
comple tly</w>
comm ittment</w>
come back</w>
com s</w>
com b</w>
com /
clu eless</w>
clo ses</w>
ci se</w>
ci pation</w>
chee se
che w</w>
che ster</w>
chat room</w>
char ts</w>
cha p
cha insaw</w>
certific ate</w>
celebr ate</w>
cau casian</w>
casin o</w>
cas sette</w>
car ried</w>
ca m
ca ge</w>
c tively</w>
c ane</w>
bur ner</w>
bur den</w>
bul b</w>
bub ba</w>
bu sters</w>
bu n</w>
bro ws</w>
br aces</w>
boy freind</w>
bound aries</w>
boo ze</w>
bl un
bi dden</w>
betro thed</w>
beli efs</w>
beha ved</w>
be ver
be ings</w>
be friend</w>
be coz</w>
be couse</w>
be ard</w>
bat tery</w>
back street</w>
b- day</w>
b u</w>
b stone</w>
b on</w>
b ent</w>
b acks</w>
aw n
avo ided</w>
attor ney</w>
at tr
assho les</w>
as sion</w>
as sign
as mine</w>
ar ouse</w>
ar a
appro ached</w>
ang els</w>
an -
amu sed</w>
alo gue</w>
ali zing</w>
al tern
al ph</w>
al oud</w>
al .com</w>
ag ging</w>
ag ged</w>
aff irmative</w>
adol es
adm ir
ad ing</w>
ad dresses</w>
act or
accomp ani
acci dently</w>
abun dance</w>
absolu tly</w>
ab stin
ab lo</w>
ab brevi
a ine</w>
Z ach</w>
Yel lowcard</w>
Y AN
X M</w>
Wi therspoon</w>
Wi kipedia</w>
WR ITE</w>
WI SE</w>
WA STE</w>
W an
W W</w>
W EVER</w>
Vo lu
Vir gin
Vi agra</w>
Van essa</w>
V illa
V .
UN LESS</w>
UN E</w>
U hh</w>
U PS</w>
Tr ack</w>
Teen age</w>
Tech nic
T op
T LC</w>
T BS</w>
Sy dney</w>
Sun set</w>
Str ange</w>
St an</w>
Some day</w>
Smur fs</w>
Smal lville</w>
Sil ence</w>
Shar on</w>
Shar key</w>
Seven fold</w>
STI CK</w>
SPEA K</w>
SOO O</w>
SO O</w>
SO LU
SI ZE</w>
SC RE
S tel
S ma
S hu
S en
S IT</w>
Ro y
Ri ver</w>
Rep ort</w>
Re znor</w>
Re cently</w>
Ra i</w>
RO W</w>
RE ST</w>
RE E
R ENT</w>
QU I
Pu ll</w>
Prof essor</w>
Pro ceed</w>
Po kemon</w>
Pi stols</w>
Ph ysi
Per form</w>
PU TER</w>
P ump</w>
P an</w>
P UR
P AS
P AN
Ol sen</w>
Of ten</w>
OPIN ION</w>
OK AY</w>
O' Don
O z</w>
O wn</w>
O thers</w>
O scars</w>
O rigin
O re
Night wish</w>
Never land</w>
N yng</w>
N yak</w>
N er
N elson</w>
N ONE</w>
N -
Mis sissippi</w>
Mil es</w>
Mi x</w>
Mer cy</w>
MOR NING</w>
MI SS</w>
M s.</w>
M emo
M a</w>
M OU
M O</w>
M J</w>
M C
Long oria</w>
Lo relai</w>
Lag una</w>
L ately</w>
L -
Kir k</w>
Kil ler</w>
Kid man</w>
Kar ma</w>
K EL
Jee zy</w>
Jack et</w>
Interest ing</w>
IN S</w>
I Pod</w>
I ES</w>
Hu h</w>
Hu gh</w>
Hal le</w>
HO WEVER</w>
HEL LO</w>
H ong</w>
H is
H ell
H eat</w>
Gre en
Ga ye</w>
GE TS</w>
G ob
G ames</w>
G ER
G A</w>
Fantas tic</w>
FOR T
FIN ALLY</w>
FI VE</w>
F ul
F lying</w>
F le
F ine</w>
F arre
F allout</w>
F actory</w>
F YE</w>
F RA
F AN
Ele ctric</w>
Ea ster</w>
ER RY</w>
EN DING</w>
E mily</w>
E igh
E MAIL</w>
Dur an</w>
Do ing</w>
Di rec
Di ffer
Da shboard</w>
Da ily</w>
DI DNT</w>
DA TING</w>
D ora</w>
D oom</w>
D irt</w>
D etro
D ang</w>
Coo per</w>
Con tro
Con f
Comp any</w>
Co cker</w>
Chri stians</w>
Cha insaw</w>
Car vey</w>
Car tman</w>
Car los</w>
COU PLE</w>
COMP LE
COMM UNICA
COM PUTER</w>
CLO SE</w>
CK ING</w>
CC CC
CARE FUL</w>
CA ME</w>
C lint</w>
C lay</w>
C eline</w>
C are</w>
C LI
Br y
Boy friends</w>
Bo ondocks</w>
Bo dy</w>
Blon des</w>
Bea ver</w>
Bab ies</w>
BU R
BL ON
BEA T</w>
BE YON
B or
B om
B itch</w>
B in</w>
B ang
B am
Au dio</w>
Any where</w>
Afri ca</w>
Ad di
ATT RAC
ATT EN
ARI OUS</w>
ANY WAY</w>
ALBU M</w>
A verage</w>
A re
A guil
A gent</w>
A U
A P</w>
A D
A *
: 00
9 7</w>
9 6</w>
8 :00</w>
7 2</w>
4 9</w>
3 000</w>
199 8</w>
197 9</w>
197 7</w>
12 th</w>
1 12</w>
00 00
.. what</w>
.. this</w>
.. then</w>
. try</w>
. not</w>
. how</w>
~ ~
z ee</w>
y lin</w>
x ies</w>
x box</w>
www. video
wre ck</w>
work out</w>
wo w
wis ely</w>
wh ining</w>
way ..</w>
wat er
wa shing</w>
wa ken</w>
vor y</w>
vom it</w>
virt ual</w>
vh s</w>
vh 1</w>
v y
v als</w>
usu aly</w>
us ers</w>
ur l</w>
ur ges</w>
une ducated</w>
un kind</w>
un ic
un e</w>
ul ence</w>
u tes</w>
u pper</w>
u ce</w>
tter ing</w>
trou bles</w>
tro phy</w>
tribu te</w>
tre nd</w>
tre mend
tre me</w>
tran sla
tra p</w>
tra de</w>
tr app
trapp ed</w>
tr ag
ti mer</w>
ti ghts</w>
ti ca</w>
thu g</w>
threat ened</w>
thre aten</w>
th n</w>
tel ler</w>
tel ep
tamp on</w>
tal es</w>
tain ment</w>
ta k
t ounge</w>
t ness</w>
t -</w>
survi vors</w>
sur round</w>
sur roun
subscri ption</w>
subscri be</w>
stub born</w>
stu res</w>
stre ssing</w>
stereo type</w>
stea dy</w>
sta ff</w>
st ric
stric tly</w>
st rea
st ef
st ats</w>
spy ware</w>
spectac ular</w>
spea ker</w>
sp ill</w>
sor ry
some ones</w>
so chi
so ber</w>
smur fs</w>
smur f</w>
smo kes</w>
smo ked</w>
sma sh</w>
sm il
sl ender</w>
sk ater</w>
sk ate</w>
sk ate
sin gular</w>
si mon</w>
shy ness</w>
shoul d
shou ted</w>
sho cking</w>
sham poo</w>
sh ful</w>
sh er
ses sed</w>
sen sual</w>
scen ario</w>
scari est</w>
sc roll</w>
sat an</w>
s oooooooooooooooo
s lot</w>
s giving</w>
s car</w>
s *
ry p
ry more</w>
round house</w>
rou te</w>
ro w
ro s</w>
ro cky</w>
ro bert</w>
ro ads</w>
ri des</w>
reti rement</w>
resembl ance</w>
ren ts</w>
reli ef</w>
rel ates</w>
red heads</w>
recor d
reconc ile</w>
reas sure</w>
re tro
re tri
re t</w>
re sources</w>
re served</w>
re searching</w>
re se</w>
re mi
re mark</w>
re dly</w>
quir ky</w>
pursu ed</w>
pu tt</w>
pu mping</w>
psychi atri
prostitu tion</w>
promis ed</w>
profession als</w>
produc es</w>
proc ure</w>
prob able</w>
pro voca
pro vo
pro ps</w>
pre v
pre sume</w>
pre marital</w>
pre dator</w>
pra yer</w>
pr in
posit es</w>
po kemon</w>
pleasur able</w>
pl ate</w>
pier ced</w>
pi mps</w>
phi lippines</w>
pheno men
per pe
per m
penetr ation</w>
pen ter</w>
pean uts</w>
pe tite</w>
pe .com</w>
past or</w>
partner ship</w>
pan cakes</w>
p- Hop</w>
p als</w>
out standing</w>
out fits</w>
out dated</w>
oun ding</w>
origin ated</w>
or dered</w>
op posites</w>
op ho
op ar
oooo oo</w>
on .
ol a</w>
offici ally</w>
off s</w>
off -
obse ss</w>
oblig ated</w>
o ta</w>
o dd
nu thin</w>
non etheless</w>
no tch</w>
no stal
no s</w>
nin th</w>
ni g
ner y</w>
nee ding</w>
nar row</w>
n .com</w>
mon i
mo tto</w>
mmmm mmm</w>
min us</w>
min ino
mid night</w>
mi ths</w>
mi st</w>
mi an</w>
mexic o</w>
member ship</w>
mat tress</w>
mar s</w>
mar ion</w>
man hood</w>
man ..</w>
ma sochi
ma ge
m x</w>
m n
m it
m ice</w>
ly -
lon el
loa the</w>
ligh ting</w>
lic able</w>
less ly</w>
le c</w>
la ser</w>
la p
la dy
l la</w>
l it</w>
l friend</w>
l ds</w>
ki a</w>
k ick
k enny</w>
jo el</w>
jo ckey</w>
jer sey</w>
je wish</w>
j i
ittsbur gh</w>
itt les</w>
iti ous</w>
it unes.com</w>
it ching</w>
isi ana</w>
ir responsible</w>
ir ra
intu ition</w>
inst al
indu stri
indu l
indi scre
incarcer ated</w>
in ky</w>
in finity</w>
in considerate</w>
imag ining</w>
im bec
illa z</w>
il legally</w>
ig ure</w>
i rish</w>
i on
i ding</w>
house work</w>
hon ky</w>
hip hop</w>
hi de
haw thorne</w>
hav nt</w>
harm less</w>
hap so
han gin</w>
han ger</w>
ham ster</w>
haha hahaha</w>
h mmmmm</w>
gre ed</w>
gra w</w>
gra ve</w>
god smack</w>
go -
gi an</w>
ger ly</w>
gar lic</w>
gam bling</w>
ga p</w>
ga in
g ore</w>
g om
g gie</w>
g ear</w>
fur niture</w>
fun k</w>
fro gs</w>
fr anc
for ming</w>
for ge
for ce
foo lish
foo ds</w>
fo rest</w>
fle xi
fla gs</w>
fl orida</w>
fil ed</w>
fif ty-
fea thers</w>
fascin ating</w>
far ther</w>
fa mil
f** k</w>
f u</w>
f ing</w>
f fe
f ag
extr as</w>
expre ssions</w>
expla ining</w>
exc ess</w>
ex cer
ev ry</w>
ev ry
ev es.com</w>
ev al
esti mate</w>
er ce</w>
environ ment</w>
en vy</w>
en g</w>
en able</w>
embaras sed</w>
elimin ated</w>
el m</w>
eigh th</w>
ed die</w>
ea ther</w>
ea gerly</w>
e- guitar.com</w>
e ting</w>
e g</w>
e ff
dum ber</w>
du mping</w>
du b</w>
drun ken</w>
dri ve
dra wing</w>
dr a</w>
dor ky</w>
dom estic</w>
do ts</w>
do t</w>
do ck</w>
discour age</w>
disc oun
disappo intment</w>
disa ster</w>
dis ney
din t</w>
dict ate</w>
di st</w>
di so
di gy</w>
di er</w>
dev a
den cies</w>
defin et
defin ed</w>
def en
deci ding</w>
de gre
de a</w>
d t</w>
d or</w>
d j
d it</w>
cur ities</w>
cul tur
cudd ling</w>
cu ps</w>
cro oked</w>
cri minal</w>
cri min
cri es</w>
craigs list
cra w
cr um
coun ted</w>
conven tional</w>
conte stants</w>
consu ming</w>
consu med</w>
conne ctions</w>
comm er
co d
cl ingy</w>
ck -
char ges</w>
cha n</w>
cat ches</w>
cap tain</w>
cap ital</w>
c un
c ism</w>
c .com</w>
bu d</w>
broad way</w>
brides maid</w>
bri ck</w>
bra g</w>
boo ger</w>
boar ding</w>
bo ondocks</w>
bo omerang</w>
bo i</w>
bo bby</w>
bo ards</w>
blo wn</w>
bi z</w>
bi ker</w>
behavi ors</w>
beauti fully</w>
be ts</w>
be tray</w>
be gun</w>
be e
be ans</w>
ban an
ballo on</w>
back up</w>
ba sement</w>
b ong</w>
b ittorrent</w>
b b</w>
b au
avat ars</w>
auto graph</w>
assu redly</w>
assa ul
arou sing</w>
ar nt</w>
ar my</w>
ar mp
app licable</w>
ap ster</w>
any ing</w>
any day</w>
amoun ts</w>
amer icans</w>
al together</w>
al ds</w>
ain ted</w>
ah ve</w>
affec ts</w>
ad ress</w>
acqu iring</w>
accomp anying</w>
accep ts</w>
ac s</w>
ac com
ab les</w>
a ustin</w>
a thy</w>
a ol</w>
a **
YO u</w>
Y -
Won der
Win ter</w>
Willi am</w>
Wh e
Wall ace</w>
WOR KS</w>
WHA TS</w>
WEB SITE</w>
W is
W ings</w>
W ine</w>
Volu me</w>
Viol ent</w>
Ver onica</w>
Vent ura</w>
Val ley</w>
V ENT</w>
V EN
Under world</w>
Un it</w>
UN DER</w>
U pon</w>
Tri sh</w>
Ton i</w>
Th under</w>
TI CE</w>
THIN KS</w>
THAN K</w>
TA KES</w>
T re</w>
T END</w>
Stu ff</w>
Stran ger</w>
St orm</w>
Spon ge</w>
Spi der</w>
Spen din</w>
Spe cial</w>
Smo ke</w>
Sim mons</w>
Sha k
Sha ggy</w>
Sea sons</w>
Se eing</w>
Sa ved</w>
Sa tis
Sa id</w>
ST ED</w>
ST E
SS ES</w>
SOO N</w>
SL EEP</w>
SI DES</w>
SH UT</w>
SH ORT</w>
SEX UAL</w>
SEE MS</w>
S way</w>
S tra
S ting</w>
S pro
S oul
S ony</w>
S on
S ly</w>
S ign</w>
S UR
S R
S MART</w>
Ro gers</w>
Ro cks</w>
Repe at</w>
Regga eton</w>
Re turn</w>
Re quest</w>
RO L</w>
RE COR
R en</w>
R app
R Y
R USH</w>
Pump kin</w>
Pri vate</w>
Pre s
Pra yer</w>
Poli ce</w>
Po st</w>
Po or</w>
Pla ying</w>
Pe tty</w>
Par ton</w>
Pac ino</w>
Pa ige</w>
PROBLE MS</w>
PP ER</w>
PL Z</w>
PA U
P opp
P il
P har
P enny</w>
P apa</w>
P AY</w>
Ou ch</w>
Off spring</w>
ON LINE</w>
OF TEN</w>
O w
O ops</w>
O oh</w>
O marion</w>
O m
O VE</w>
No ah</w>
Nic holas</w>
Na vigate</w>
N ig
N apster</w>
N ER
Mo ses</w>
Mo on
Me thod</w>
Me atloaf</w>
Mc Gu
Matthe ws</w>
MOVI ES</w>
MIN U
MA LE</w>
MA KING</w>
M un
M ick</w>
M icha
M ain</w>
M TV
Lyric s.com</w>
Li zzie</w>
Li br
LON GER</w>
LA UGH</w>
L em
L earning</w>
L e</w>
L AND</w>
Ke ira</w>
K ung</w>
K ool</w>
K ings</w>
K A</w>
K -
Jo in</w>
Jo han
JOH N
JO B</w>
J r</w>
J onny</w>
J azz</w>
J J</w>
In tro
In stant</w>
I ´
I r
Hi p-Hop</w>
Ha y
Ha waii</w>
HO TT</w>
HH H</w>
H ob
H ei
H ag
H D</w>
H BO</w>
H AND</w>
H .I.
Goo gle.com</w>
Go ds</w>
Gi ving</w>
Gi ants</w>
Gar den</w>
GREA TEST</w>
GA VE</w>
GA MES</w>
G un
G ina</w>
G ED</w>
Fre sh</w>
Fre e
Franc isco</w>
Fer ris</w>
Fa v</w>
FIR E</w>
FA THER</w>
F lo
F igure</w>
F ever</w>
F an</w>
F ELL</w>
F .
Ex pl
Europe an</w>
Ene my</w>
En ter
Ed it</w>
E- 40</w>
Dre am
Dra ke</w>
Dou ble</w>
Dom in
Do zen</w>
Do gs</w>
Detro it</w>
Dest ination</w>
Deci de</w>
De e</w>
DV R</w>
DO E
DI F
DI ES</w>
DEFINIT ELY</w>
DEA TH</w>
DAUGH TER</w>
D rac
D ion</w>
D are</w>
D RO
D GE</w>
Cri minal</w>
Com mun
Co z</w>
Co sby</w>
Clear ly</w>
Cin dy</w>
Chi cks</w>
Chi ck</w>
Char ming</w>
Ch ong</w>
Cele br
Car ly</w>
Ca pricorn</w>
CHRI ST
CHO ICE</w>
CHEA TED</w>
C ul
C happ
C ITY</w>
C ALLY</w>
Bu t
Bol lywood</w>
Bo ss</w>
Beck ham</w>
Bea vis</w>
Bea stie</w>
Be hind</w>
Be have</w>
Be ep</w>
Be cky</w>
Ba be</w>
BRO KE</w>
BO B</w>
BLU E</w>
BE COME</w>
B ye</w>
B le
B a</w>
B RI
B J</w>
B .I.
B .</w>
At lanta</w>
Ar abic</w>
Ai shwarya</w>
ANSW ER
AMERI CAN</w>
AMERI CA</w>
AL ONG</w>
A venue</w>
A unt</w>
A mber</w>
A TELY</w>
A IR</w>
A GO</w>
A DD
A **</w>
90 2
8 3</w>
5. 00</w>
5 00
4 8</w>
4 11</w>
3g forfree.com</w>
3 6
199 9</w>
198 9</w>
197 5</w>
10 -
1 10</w>
1 .com</w>
.. even</w>
. well</w>
. sorry</w>
. oh</w>
- American</w>
** *
' on</w>
' am</w>
' a</w>
' Cause</w>
zi pper</w>
z u
z h
z eppelin</w>
you self</w>
yea h..</w>
yahoo. co.uk</w>
y- z</w>
y ummy</w>
y na</w>
x ton</w>
www. im
www. i
www. 3gforfree.com</w>
worl d
wom ens</w>
wn ing</w>
with out
win ners</w>
willi ams</w>
wil l
wi kipe
were wolf</w>
web sit
we ther</w>
wal k
wa ger</w>
wa ck</w>
w uss</w>
w us
vo tes</w>
vic tory</w>
vic inity</w>
vi e</w>
vamp ires</w>
va gue</w>
v u</w>
v ince</w>
v eg
v ali
v a.org</w>
ur oun
uroun i</w>
under wood</w>
under stand
under age</w>
un sa
un important</w>
un cles</w>
un believable</w>
ug liest</w>
u ve</w>
twenty- four</w>
tur a</w>
tun er</w>
tru sts</w>
trav ag
travag ant</w>
tra its</w>
tr ys</w>
tr e</w>
tr ace</w>
ton k</w>
to x</w>
tion ships</w>
ti se</w>
ti le</w>
ti fa
tifa h</w>
thre e-
ther e..</w>
that `s</w>
ten th</w>
tel evi
technic al</w>
te ous</w>
tane ous</w>
tal ka
talka tive</w>
tain able</w>
tab lo
ta tive</w>
ta kin</w>
t tish</w>
t tin</w>
t ors</w>
t les</w>
t its</w>
t ink</w>
t gun</w>
t ch
t ack
t /
swe ating</w>
sw ears</w>
sur ance</w>
super vi
sugge sting</w>
subsequ ent</w>
sub jects</w>
su dden</w>
stupi d
stu died</w>
stru ggling</w>
stron gest</w>
stop her</w>
stom p</w>
sto l</w>
stin ky</w>
steri o</w>
stef ani</w>
ste pping</w>
st ool</w>
st ling</w>
span king</w>
soooo oooo</w>
so li
so cially</w>
smo ker</w>
smal lest</w>
sli pped</w>
sla yer</w>
sion al</w>
sing ing
sincer ity</w>
sick o</w>
si ssy</w>
si si
si m
shu a</w>
sho tgun</w>
shee ts</w>
shar ea
sha ggy</w>
sha dows</w>
sha des</w>
sh ru
sh room</w>
sh el
sev enties</w>
sett ling</w>
senti ally</w>
sem ents</w>
sem ble</w>
self- confidence</w>
se duc
se c</w>
scri pted</w>
sant ab
san ity</w>
sa m
s way</w>
s anta</w>
rus sian</w>
ru ins</w>
ro x</w>
ro pe</w>
ro cket</w>
rif ying</w>
ri pped</w>
ri cky</w>
ri ck</w>
reun ite</w>
repe ats</w>
ren d</w>
remember ing</w>
real ised</w>
re- runs</w>
re war
re vi
re stur
re lly</w>
re lin
ras cal</w>
rang ed</w>
ran dy</w>
ra ined</w>
r ong</w>
r era</w>
r ass</w>
r achel</w>
qu itting</w>
pun ish</w>
pub li
proble y</w>
prob ability</w>
pri zes</w>
pri c
prefer ably</w>
precha un</w>
pre pare</w>
pr ate</w>
pp s</w>
pp et</w>
poten tially</w>
post -
posses sing</w>
portra ys</w>
pop ped</w>
pon dering</w>
po ster
po ly</w>
po eple</w>
plea ses</w>
pil e.com</w>
photo graphs</w>
pho enix</w>
phenomen al</w>
ph an
phan tom</w>
perver ts</w>
per sue</w>
per man
per ish</w>
pe ers</w>
pe cu
pecu liar</w>
pat tern</w>
paradi se</w>
par rot</w>
p ting</w>
p s
p iti
p itch
p eak</w>
p atrick</w>
over look</w>
our self</w>
orig in</w>
or ay</w>
oper ator</w>
op y</w>
op rah</w>
oo th</w>
ones elf</w>
on k
on e.
oc ta
o' clock</w>
o ther
nur sing</w>
now ..</w>
nov els</w>
nor mous</w>
no ses</w>
nnnn nnnn
nin ety</w>
night mar
nightmar es</w>
nick el
ni p</w>
ni fic
nes ota</w>
ner able</w>
nephe w</w>
ne cks</w>
na g</w>
n um</w>
n am</w>
n ac
musi cals</w>
murder er</w>
motiv ation</w>
mor ons</w>
mono gam
monogam ous</w>
mo tor
mo squ
min g
mer cy</w>
men tioning</w>
mem ori
mem orable</w>
mean ings</w>
mea sured</w>
mc cartney</w>
mat ri
mat ernal</w>
marri es</w>
mar t.com</w>
mar ke
ma shed</w>
ma kers</w>
ma inten
ma ids</w>
ma ha</w>
ma fia</w>
m ack</w>
m ab
m .com</w>
ly k</w>
lu be</w>
loy alty</w>
loc ke</w>
lo tta</w>
lo o</w>
lo go</w>
liqu or</w>
lin o
lif es</w>
lic it</w>
li me
li hood</w>
li ers</w>
lev els</w>
lev eland</w>
le tte</w>
lat ter</w>
lap top</w>
lam b</w>
lab or
lab els</w>
la y
la g
kn wo</w>
kin dness</w>
kin d
kidd in</w>
k oo
k nife</w>
k at</w>
k at
k al
judg ment</w>
jo ey</w>
jac kets</w>
ja y-z</w>
ja ke</w>
j ure</w>
j st</w>
itch foot</w>
it a
it -</w>
it -
is ley</w>
irrit ates</w>
ir way</w>
ir onic</w>
intrigu ed</w>
inter up
inter racial</w>
inter action</w>
inse curities</w>
indic ates</w>
in sensitive</w>
in different</w>
in as</w>
imp a
impa tient</w>
imit ate</w>
imag in
il o</w>
il li</w>
igno red</w>
ic e
i to</w>
i re
i ma
i ffer</w>
hy p
hus h</w>
hor se
hope ful</w>
hoo p</w>
hoo k
hom opho
hom es</w>
hol son</w>
hol der</w>
him ..
hil lary</w>
high way</w>
high -
hide ous</w>
her it
hel or</w>
heart broken</w>
hass le</w>
han ks</w>
half way</w>
hal loween</w>
ha mas</w>
ha irs</w>
ha i</w>
h t
h ence</w>
gun na</w>
gu r</w>
gu id
gri p</w>
gre ek</w>
gra ms</w>
gra des</w>
gr l</w>
good night</w>
good luck</w>
go o</w>
girl ..</w>
gir th</w>
gi gaby
gh ten</w>
gas olina</w>
g or</w>
g hosts</w>
g ger</w>
g atory</w>
fun d</w>
fu cked</w>
friend .com</w>
fre estyle</w>
for ty-
for merly</w>
foo led</w>
flir ted</w>
flexi ble</w>
flat ts</w>
fla g</w>
fig uring</w>
fici ent</w>
fi ve-
ff man</w>
fee ding</w>
fab ric
fa vored</w>
f t.</w>
f -
ez .com</w>
eye brows</w>
extra ordinary</w>
exerc ises</w>
exclaim ed</w>
excep tions</w>
ex- partner</w>
ex travagant</w>
ex ha
ever yones</w>
et field</w>
estab lished</w>
estab lish
escor t</w>
es sings</w>
es on</w>
ent worth</w>
endea vor</w>
end ation</w>
encoun tered</w>
en to</w>
en gra
en es</w>
embaras sing</w>
embar rass</w>
electron ics</w>
el ers</w>
el ements</w>
e yel
e normous</w>
dy namite</w>
dum my</w>
drum mers</w>
drag ged</w>
dra in</w>
dr as
doub tful</w>
don '
dog pile.com</w>
docum ent</w>
do tn</w>
distr acted</w>
disp lea
dir t
differ nt</w>
di um</w>
desper ately</w>
descri bing</w>
des k</w>
des iring</w>
des cent</w>
der .com</w>
dent al</w>
den se</w>
den ial</w>
demonstr ates</w>
defec ate</w>
dec lined</w>
dec ember</w>
de sig
de par
de fe
de cor
de bate</w>
dar kness</w>
da mag
d war
d oom</w>
d ingly</w>
d ges</w>
d c</w>
custo dy</w>
cultur al</w>
cre eps</w>
cr iti
conte stant</w>
cont acts</w>
conclu de</w>
conce ited</w>
con sult</w>
comm ited</w>
comm entary</w>
comb ined</w>
com p</w>
com for
com erci
com a</w>
cod ile</w>
co ward</w>
co sme
co le</w>
clu ding</w>
cli cks</w>
cli cking</w>
class mates</w>
ck o</w>
ck er
cho ir</w>
chil i</w>
chemi st</w>
chea tin</w>
char ged</w>
ch up</w>
categ ories</w>
car pet</w>
capac ity</w>
cand le</w>
can ni
ca stle</w>
c tra</w>
c tives</w>
c rude</w>
c ly</w>
c ine
bur ns</w>
bul lets</w>
bu zz
bro ken
bri ef
br ands</w>
bor ne</w>
boo ted</w>
boo st</w>
bo wwow</w>
bo red.com</w>
blon ds</w>
blo g
blo cker</w>
ble ach</w>
bl ur
bl er</w>
bit ches</w>
bene ath</w>
bel l
be aches</w>
bb on</w>
bast ank</w>
bas sist</w>
ball room</w>
baby sit</w>
b ricks</w>
b ition</w>
av ril</w>
av en
augh ty</w>
augh n</w>
au str
at o
assign ment</w>
as ed</w>
as car</w>
artic les</w>
arre n</w>
ar row</w>
ar mor</w>
ar abian</w>
ap p</w>
any more
any how</w>
ank le</w>
ang er
and ers</w>
an w
an s
an ism</w>
an im
an ca</w>
an an
an aly
all ways</w>
al way</w>
al ls</w>
again ..</w>
afri can</w>
ado res</w>
ado ption</w>
ad es</w>
achi eved</w>
acc es
ac cu
ac counts</w>
abu sing</w>
abor tion</w>
aband oned</w>
ab lan
a we</w>
a sians</w>
a pro
a mi
a ma
a do</w>
__ __</w>
Y u-
Y ay</w>
Y EL
XX X</w>
X P</w>
X D</w>
Wy att</w>
Woo dy</w>
Wh it
Wee zer</w>
WI LLING</w>
W itch</w>
W illy</w>
W ham</w>
W entz</w>
W ell
W arren</w>
Villa ge</w>
Val o</w>
V ille</w>
V IN</w>
V A
U LT</w>
Tra volta</w>
Tr inny</w>
Tr ace</w>
Top ic</w>
To y</w>
Th us</w>
Th ought</w>
Ten acious</w>
Ta kes</w>
TH I
TH DAY</w>
T wain</w>
T rent</w>
T il</w>
T ed</w>
T ab
T LE
T IT
T ERS</w>
Sus an</w>
Sur i</w>
Sum mer
Sub lime</w>
Stri pper</w>
Stri ke</w>
Stra ight</w>
Stel la</w>
St acey</w>
Squ ad</w>
Spro cket</w>
Spo ck</w>
Spar xxx</w>
Sp y</w>
Sp ain</w>
Sound track</w>
Sol o</w>
Smo king</w>
Sli de</w>
Skyn yrd</w>
Si sters</w>
Shir ley</w>
Sh ine</w>
Scor pios</w>
Scar lett</w>
Sc rubs</w>
SU S</w>
ST Y</w>
ST RA
ST ER
SSSS SSSS
SMI LE</w>
SIMP LE</w>
SEL VES</w>
S ong
S leep</w>
S ing
S hoo
S era</w>
S av
S OUND</w>
S -
S *
Rub ber</w>
Rom pe</w>
Rom an
Ro th</w>
Rhy mes</w>
Rela tionships</w>
Recor d</w>
Radio head</w>
REA LI
R ouge</w>
R on
R n
R ice</w>
R ican</w>
R alph</w>
R ag
Pro digy</w>
Pri ce</w>
Pre sident</w>
Pl enty</w>
Pic tures</w>
Per ry</w>
Pan tera</w>
PRI L</w>
PR OM
PO ST</w>
PO SIT
PL US</w>
PERSON ALITY</w>
PAU L</w>
PAR TY</w>
PA ST</w>
P lea
P it
P USH</w>
P HI
P G</w>
P -
Ore gon</w>
Or chestra</w>
Or al</w>
Ol lec</w>
OU SLY</w>
OR I
OFFI CE</w>
O' Bri
O'Bri en</w>
O W</w>
Nor mally</w>
Nin ja</w>
Napo lean</w>
Na tional</w>
NY C</w>
NOR MAL</w>
NO PE</w>
NE WS</w>
N et</w>
N aughty</w>
N ancy</w>
Mus li
Mor pheus</w>
Mor ning</w>
Mom ent</w>
Min nie</w>
Memo irs</w>
Me tal
Me ga
McP hee</w>
Mc Donald</w>
Mat rix</w>
Mar issa</w>
Mal o</w>
Mag gie</w>
Mach ine</w>
MY SELF</w>
MAR I
MA TE</w>
MA TCH</w>
M uppets</w>
M olly</w>
M au
M add
M CR</w>
M *
M* A*
Lyn yrd</w>
Lyn n</w>
Li ves</w>
Len non</w>
Law rence</w>
La unch</w>
LO SE</w>
LO R</w>
LO A
LL ER</w>
LE E</w>
LA TE</w>
L un
L ed
Ke eping</w>
K nights</w>
Ju lie</w>
Ju de</w>
Je al
Jan is</w>
JOHN NY</w>
JO KE</w>
JE SUS</w>
J or
J ar
Intro duce</w>
IT ING</w>
IT ED</w>
IM O</w>
I ceman</w>
Hom osexual</w>
His panic</w>
Hil arious</w>
High way</w>
Hi de</w>
Her mione</w>
Har rison</w>
Har bor</w>
HO LD</w>
HI V</w>
HA LF</w>
H etfield</w>
H ang
H IN
Gu ar
Goo dy</w>
God zilla</w>
Gob let</w>
Go ku</w>
Gla ss</w>
GO D
GH TS</w>
G ES</w>
G EE
G AR
G .</w>
Frank ly</w>
For give</w>
Fli p</w>
Fla va</w>
Fer gie</w>
Fe z</w>
FU TURE</w>
FRIEND SHIP</w>
FR ONT</w>
FOL LOW</w>
FI L
FA ULT</w>
FA KE</w>
F ood</w>
F am
F OOL</w>
F L</w>
F AL
F ACT</w>
F .</w>
Ex press</w>
Ev ans</w>
Ev an</w>
En ds</w>
Ed ition</w>
EX AC
EXAC TLY</w>
EV EN
EN DS</w>
EL L
EEEE EEEE
EA SI
E- bay</w>
E ddy</w>
E W</w>
E E</w>
Down loading</w>
Dou g</w>
Dol ly</w>
Diam onds</w>
Di ego</w>
Di az</w>
Di ana</w>
Daugh try</w>
DOUB T</w>
DOE SNT</w>
DI A
DEA L</w>
DD LE</w>
D ying</w>
D rum
D ish</w>
D in
D enny</w>
D el
D aw
D ani</w>
D UR
D OO
D EV
D B
Coun ty</w>
Cor in
Contro l</w>
Conf essional</w>
Cli ff</w>
Cir cus</w>
Ch esney</w>
Ch erry</w>
Cassi dy</w>
CU LT</w>
CLU E</w>
CLU B</w>
CHAN CE</w>
CH ES</w>
CA UGHT</w>
C ult</w>
C ou
C on</w>
C amp
C able</w>
C P</w>
C LE</w>
C D-
C AN
C 7</w>
Bur bank</w>
Bu tton</w>
Bro ken</w>
Britt ney</w>
Bra veheart</w>
Br and</w>
Bo w
Bo i</w>
Ben nett</w>
Be tty</w>
Bar rymore</w>
Bar ker</w>
BU TT</w>
BRO WN</w>
BR ING</w>
BLIN D</w>
BIR THDAY</w>
BEYON CE</w>
B us
B unch</w>
B oun
B one</w>
B less</w>
B elle</w>
Ar ms</w>
Apo logi
Ani mation</w>
Ani mal</w>
Al bert</w>
Aff leck</w>
AS AP</w>
ANSW ERS</w>
AG ES</w>
ADV ICE</w>
ADD RESS</w>
AB SOLU
A ction</w>
A PRIL</w>
A INT</w>
9 8
800 -
7 9</w>
6 9
6 8</w>
5 3</w>
5 0s</w>
5 .</w>
4 ever</w>
3 50</w>
3 /
20 th</w>
2 3rd</w>
2 2-
2 1st</w>
199 6</w>
199 1</w>
198 7</w>
198 4</w>
197 8</w>
197 1</w>
196 0s</w>
18 -
1 50</w>
0 .
.. not</w>
.. im</w>
. there</w>
. maybe</w>
. It</w>
- fi</w>
- Oh</w>
** t</w>
' no</w>
' i</w>
¡ ¡
zen eg
z ona</w>
z ens</w>
z an</w>
yo te</w>
yl on</w>
yl and</w>
ya hu</w>
y r.</w>
y line</w>
x s</w>
x im
www. war
wrest le</w>
win ked</w>
win ds</w>
wid ely</w>
wi res</w>
wi mp</w>
wi kipedia</w>
wi ht</w>
wi h</w>
wi dow</w>
wer ed</w>
well- known</w>
war ming</w>
wal -
w/ e</w>
w ary</w>
vul nerable</w>
villa in</w>
vide o.
vic torious</w>
vi sits</w>
ver si
ver ry</w>
valu es</w>
v t</w>
v r</w>
v int
v inci</w>
v est
v ain</w>
utter ly</w>
utili zed</w>
us b</w>
ur ine</w>
up dated</w>
un to</w>
un reasonable</w>
un healthy</w>
un easy</w>
un cut</w>
un cool</w>
un available</w>
um m
ultimat e-guitar.com</w>
ul ly</w>
u sted</w>
ty hose</w>
twenty- two</w>
tur ner</w>
tur key</w>
tur ing</w>
tri ps</w>
transla tion</w>
trag ic</w>
tra shy</w>
ton ed</w>
to s</w>
to ps</w>
to p
time ..</w>
ti ring</w>
thri lled</w>
thr ash</w>
thou ghtful</w>
thou gh
thn k</w>
thir ties</w>
thin gy</w>
thi k</w>
they ll</w>
them self</w>
the l</w>
th ign</w>
th en
th a
tex ting</w>
teen -year-old</w>
tatt oo
ta urus</w>
ta ht</w>
ta .com</w>
t us</w>
t ant</w>
swee ts</w>
surpri singly</w>
sur face</w>
sun set</w>
sugge sts</w>
suc ceeded</w>
su posed</w>
su p</w>
stun ning</w>
strat egy</w>
str angely</w>
str 8</w>
stor m</w>
stop ping</w>
sti cky</w>
star .com</w>
sta ir</w>
sta b</w>
st ings</w>
st ent</w>
st ac
squee ze</w>
squ ad</w>
spou ses</w>
spir its</w>
spi ky</w>
spi derman</w>
spel ls</w>
spar k
span ked</w>
span dex</w>
sp here</w>
sound tracks</w>
son er</w>
som body</w>
so- called</w>
snug gle</w>
sna il</w>
smo poli
smo kin</w>
smar test</w>
smal lville</w>
skin ned</w>
skel eton</w>
sil k</w>
si mi
simi liar</w>
si lic
shor ts</w>
shit s.com</w>
sha ves</w>
sha pes</w>
sha kes</w>
sh mal
shmal lows</w>
sh in
sex es</w>
serv ation</w>
seper ated</w>
senti ment</w>
sent ences</w>
sen ses</w>
sear ches</w>
se th</w>
se same</w>
se infeld</w>
se ful</w>
scre wing</w>
scor pios</w>
sco red</w>
sc o</w>
sad dest</w>
sa w
sa kes</w>
s sus</w>
s sion</w>
s not</w>
s ch
s ali
s **t</w>
ryp tonite</w>
ry stal</w>
run ner</w>
rub bing</w>
ru pt</w>
ru m</w>
roo ting</w>
ro y</w>
ro ber
ridi cu
rich ard</w>
ri ot</w>
ri ff</w>
ri din</w>
ri chie</w>
ri bbon</w>
retri eve</w>
respe cted</w>
ren tal</w>
reminis cent</w>
reli eved</w>
relation shi
refriger ator</w>
reci pe</w>
re tard</w>
re s
re produce</w>
re moving</w>
re minded</w>
re main
remain der</w>
re made</w>
re it
re gain</w>
re eves</w>
re comend</w>
re aching</w>
rain coat</w>
r u</w>
r nt</w>
r in
r er</w>
r ash</w>
quic ker</w>
qui z</w>
ques tioned</w>
que ens</w>
quali fy</w>
qu it
qu ake</w>
puzz le</w>
pupp ies</w>
pun ct
pun ching</w>
pu shed</w>
psycho logical</w>
psychiatri st</w>
prob ab
pro ved</w>
pro ficient</w>
pro ceeded</w>
priv ates</w>
pri me</w>
preten ded</w>
pres sed</w>
pre occupied</w>
pre dat
predat ors</w>
possi bilities</w>
pop -up</w>
poo h</w>
po c
plu mber</w>
play er
plat inum</w>
pil lows</w>
pi erc
pierc ings</w>
phras es</w>
pha se</w>
ph ne</w>
percus sion</w>
per ky</w>
per fer</w>
pen ny</w>
pe tty</w>
pe ck</w>
pay ment</w>
par ate</w>
pan tyhose</w>
pa pers</w>
p re</w>
p ony</w>
p ment</w>
p itch</w>
p ea
p atch</w>
p at</w>
oxy gen</w>
overwhel med</w>
out -
ou tw
ou ther</w>
ou ter</w>
or chestra</w>
opar dy</w>
op ion</w>
op ing</w>
oooo oooo</w>
oooo o</w>
on- line</w>
on ent</w>
old- fashioned</w>
ol d.
off spring</w>
of -
od or
oblig ation</w>
obje ctive</w>
o g</w>
o ath</w>
nut tin</w>
nov ela</w>
notic ing</w>
nostal gic</w>
no tion</w>
no ti
no ises</w>
nine ties</w>
nigg a</w>
ni ether</w>
ne- yo</w>
ne tte</w>
na tion
na sal</w>
n n</w>
n it</w>
n -
mu te</w>
mu slim</w>
mu g</w>
mp3 .com</w>
mp h</w>
movi es
movi e..</w>
motiv ate</w>
mom mas</w>
mo dest</w>
mm ..</w>
mis understand</w>
mir rors</w>
mir ac
min es</w>
milk shake</w>
micro wave</w>
mi stre
mean while</w>
me tal
me dy</w>
me atloaf</w>
maxi mum</w>
materi al
mat ching</w>
mat ch
mas sa
mar shmallows</w>
mar rage</w>
mar ley</w>
man n</w>
man disa</w>
mainten ance</w>
mag ici
magici an</w>
mach o</w>
mach ines</w>
ma iling</w>
m steen</w>
m icha
ly n</w>
lust ful</w>
lu ll
low -
lou sy</w>
loo ser</w>
lonel iness</w>
lon don</w>
logi c</w>
lino is</w>
lil _
like lihood</w>
lic ate</w>
li vin</w>
li vin
li onaire</w>
li et</w>
leng thy</w>
lea gue</w>
le gen
l on</w>
know ..
kil lers</w>
kidna pped</w>
ket chup</w>
ke es</w>
ke ..</w>
k y
k swa
k ar</w>
k ..</w>
jus tify</w>
jus tice</w>
jud ge
ju venile</w>
jo cks</w>
je an</w>
j ustin</w>
j ourney</w>
j ail
j ab
j -
it y
is ms</w>
irra tional</w>
inter views</w>
intelle ct</w>
intelle ct
int ent</w>
inst itu
insp ired</w>
ing /
infor ming</w>
indic ated</w>
in tro</w>
in the
in sincere</w>
in jury</w>
in hi
in fected</w>
in experienced</w>
in ev
impl ore</w>
imp ul
imp lies</w>
im per
im moral</w>
im esh</w>
il lian</w>
identi fication</w>
identi cal</w>
id le</w>
id ea
ici a</w>
i v</w>
i think</w>
hor ns</w>
home made</w>
hom ie</w>
ho ws</w>
ho ward</w>
ho lly</w>
ho key</w>
hi me</w>
hi ma</w>
hi cks</w>
hi a</w>
hesit ant</w>
hear tedly</w>
hear s</w>
he z</w>
har p</w>
hapso dy</w>
haha h</w>
haha h
ha unt</w>
ha tt
ha il</w>
ha bit
h ulk</w>
h ed</w>
guid ance</w>
gro ws</w>
gro ove</w>
gro o
gradu ated</w>
gradu ate</w>
grab bing</w>
gr ounds</w>
gr ind</w>
good ..</w>
goo dy</w>
go to</w>
gn ity</w>
gi on</w>
gi gg
gi ble</w>
ger ard</w>
gene tic</w>
gen s</w>
ge aton</w>
gall ery</w>
ga ur
ga me
g out</w>
g li
g led</w>
g au
g .</w>
fu sed</w>
fu rious</w>
fu dge</w>
fro zen</w>
frea ken</w>
fr inds</w>
fore head</w>
flow ing</w>
fli ps</w>
flat ulence</w>
fla me</w>
fl u</w>
fin est</w>
fil thy</w>
ff in
ff i
ff any</w>
festiv al</w>
fel ine</w>
fec es</w>
fe ed
fe ars</w>
fe ar
favour ites</w>
far ted</w>
fan fic
f** *
f teen</w>
f ry</w>
f ound
f m</w>
exten ded</w>
experim ent</w>
exe cu
ex tro
ex or
eval uate</w>
ev y</w>
ev r</w>
esca ped</w>
es is</w>
es h.com</w>
entertain ed</w>
ent a</w>
eng ages</w>
encour aged</w>
encoun ters</w>
enc ing</w>
en vious</w>
en tion</w>
emer gency</w>
em brace</w>
em an
elimin ate</w>
el lar</w>
el et</w>
el e</w>
ed ..</w>
ea sy
ea d
e uro
e mule</w>
e con
econ om
dum b
du cks</w>
dro wned</w>
dre ss
dr .</w>
down hill</w>
don e
do snt</w>
dissa pointed</w>
discri min
disci pline</w>
disc lose</w>
disappo int</w>
disa ppe
din er</w>
dig its</w>
dig gers</w>
diff er</w>
di ving</w>
di vi
di stor
di sm
di m</w>
di an</w>
di alogue</w>
deva stated</w>
destro yed</w>
des pis
der gar
den ied</w>
degre es</w>
definet ely</w>
def ensive</w>
de stru
de sign</w>
de pic
de mean
dam ned</w>
da me</w>
d u</w>
d s..</w>
d ough</w>
d m
d ary</w>
custom ed</w>
cu te
cro codile</w>
critici ze</w>
cre te</w>
cr acking</w>
counc iling</w>
coun ter
cor d</w>
consci ous</w>
confron ted</w>
concentr ating</w>
con gratulations</w>
con grats</w>
con ci
compla ins</w>
comp rom
comp assion</w>
comm only</w>
comedi c</w>
com unic
col or
cocon ut</w>
coa ster</w>
co on</w>
co des
clean ed</w>
ck les</w>
ci ate</w>
chi valry</w>
chi cs</w>
che ers</w>
che cks</w>
chann el.com</w>
cha tro
cha ins</w>
ch al
cent ric</w>
cele bra
cel lu
ce me
car ter</w>
car men</w>
can ada</w>
ca tholic</w>
ca sts</w>
ca ms</w>
ca mp
c row</w>
c ling</w>
c d
but th
bur gers</w>
bun gee</w>
buis ness</w>
bu ts</w>
bu ried</w>
broad casting</w>
brain washed</w>
brac elet</w>
br at</w>
br agging</w>
bor o</w>
bo dily</w>
blo ckbuster</w>
bl essings</w>
bl at
bitch y</w>
birth days</w>
bi ased</w>
bf /
belong ings</w>
begin ner</w>
be tter
be tta</w>
bar k</w>
bang ed</w>
banan as</w>
ban ks</w>
ba it</w>
ba il</w>
b z</w>
b low
b lic</w>
b j
b ff</w>
b end</w>
b am
avo iding</w>
aven ue</w>
autom obile</w>
att ach
at tainable</w>
at ro
asa p</w>
arti ficial</w>
ar cade</w>
appreci ation</w>
app rentice</w>
app lied</w>
app le.com</w>
ann i</w>
ani ston</w>
ani ma
ang led</w>
ang ar
an tha</w>
an nie</w>
an is</w>
am use</w>
am d</w>
altern ate</w>
alpha be
all uring</w>
all -
alcoho lic</w>
al ter
al icia</w>
age ous</w>
af fected</w>
adul ter
adoles cent</w>
ado pt</w>
ad onk</w>
ad mission</w>
ad just</w>
ad ed</w>
ad dressed</w>
ack down</w>
accur ately</w>
accor dingly</w>
accompani ed</w>
ac customed</w>
abbrevi ation</w>
ab road</w>
ab ase</w>
a y
a waiting</w>
a p</w>
a e</w>
a ..</w>
Z a
Yu- Gi
YOU N
YA HOO
YAHOO .COM</w>
Y U
X- men</w>
Wor ks</w>
WW F</w>
WOR K
WONDER FUL</w>
W orry</w>
W ig
W arri
W ants</w>
W AT</w>
Vol kswa
Ver se</w>
VIDE OS</w>
V ol</w>
V en
Up date</w>
Under ground</w>
U tah</w>
U mmm</w>
U ma</w>
U SU
U M</w>
Ty rese</w>
Tre y</w>
Tr ying</w>
Tr ump</w>
The ory</w>
The me</w>
The ater</w>
Th ank
Th an
TWI CE</w>
TR OU
TO DAY</w>
TI ES</w>
THER ES</w>
TH S</w>
T wel
T orn</w>
T i</w>
T R</w>
T IN
T EX
Swe at</w>
Su ppo
Su ddenly</w>
Str y
Sti mpy</w>
St ars</w>
Sp ea
Sop ran
So ap</w>
Six th</w>
Sin gle</w>
Si rius</w>
Shor t</w>
Sho e</w>
Sher yl</w>
She ep</w>
Ser vice</w>
Sat ur
Sam antha</w>
Sa ying</w>
Sa i
SUPP ORT</w>
ST Y
ST ORE</w>
ST EM</w>
SP OU
SPOU SE</w>
SP ICE</w>
SP I
SP ER
SOME BODY</w>
SL EE
SHO WS</w>
SHAR E</w>
SC OR
S yl
S our
S ort</w>
S ch
S ain
S SS</w>
S MO
S LI
S AN
Ro dney</w>
Ri dd
Rhy thm</w>
Regar ding</w>
Rea dy</w>
Re ality</w>
RI P</w>
REP EAT</w>
R um
R ules</w>
R oo
R ise</w>
R ace</w>
R D</w>
Qu ick
Pu blic</w>
Psy cho</w>
Plan et</w>
Pac ific</w>
PR OUD</w>
PR AY</w>
PO D</w>
PL AN
P romise</w>
P in
P ig
P LO
P 2P</w>
Out kast</w>
Om g</w>
OV ER
OOOO O</w>
ON AL</w>
O zzfest</w>
O dd</w>
O K.</w>
Nickel odeon</w>
Ni ke</w>
NA STY</w>
My stic</w>
My space.com</w>
Mul an</w>
Mon k</w>
Mir anda</w>
Mic higan</w>
Mer maid</w>
Mer cury</w>
Men ace</w>
Me mphis</w>
Me an
McGu ire</w>
Mc Bride</w>
Mar vel</w>
Mar tina</w>
Mar c</w>
Maj or</w>
Madd en</w>
Ma x
Ma ke
MOU TH</w>
MO TION</w>
ME WI
ME ANS</w>
M*A* S*
M i</w>
M anga</w>
M all</w>
M R</w>
M ET</w>
Lyn ard</w>
Lo ck</w>
Lind sey</w>
Li me
Laugh ing</w>
Lat ino</w>
La ura</w>
LOV ER</w>
LI VES</w>
LI MEWI
LEA N</w>
LE S
LE GAL</w>
LAN GU
LA R</w>
L. A.</w>
L ead</w>
L AR
Ku mar</w>
Ke y
Kar eena</w>
KNO WING</w>
KK KK
K it</w>
Jun kie</w>
Jo b</w>
Je annie</w>
Ja y
JER K</w>
JE SSI
J a</w>
J /k</w>
Inv esti
In iti
In die</w>
IT I
IR E</w>
IL LEGAL</w>
I dk</w>
I ST</w>
I MA
I E</w>
Hur ley</w>
Hoo bastank</w>
He alth</w>
Har mony</w>
Hal ey</w>
HU H</w>
HON EY</w>
HON EST
HO TT
HIL ARIOUS</w>
HEA VEN</w>
HEA L
HAPPEN ED</w>
HA VENT</w>
H us
H op
H ome
H itch</w>
H e-
H ad
H H</w>
H .</w>
Gri s
Good man</w>
Gl ory</w>
Gi ft</w>
GU E</w>
GRO W</w>
GR OU
GR AND
GN R</w>
GEN ER
GE OR
G- Unit</w>
G ross</w>
G ill</w>
G et
G ently</w>
G MENT</w>
G M</w>
G LA
G IN</w>
Fu ture</w>
Frank lin</w>
Fra sier</w>
Fil th</w>
Fil ms</w>
Fil m</w>
Figh ters</w>
Fi fteen</w>
Fanta sia</w>
Fa st</w>
FRA GMENT</w>
FORT ABLE</w>
FOR GIVE</w>
FA R</w>
F iles</w>
F arm</w>
F OUR</w>
F EAR</w>
Expl orer</w>
Ex treme</w>
Ex actly</w>
Enter tainment</w>
En dless</w>
El mo</w>
El m</w>
Ed gar</w>
EX PE
EX CEPT</w>
E s
E den</w>
E Bay</w>
E /
Dun n</w>
Dra ma</w>
Do pey</w>
Do ctor</w>
Differ ent</w>
De light</w>
Dav is</w>
DUR ING</w>
DIF FI
DI VOR
DECI DE</w>
D ates</w>
D at
D ancer</w>
D ENT</w>
D EEP</w>
Cu pid</w>
Cre am</w>
Cow boys</w>
Comple te</w>
Comp ton</w>
Col bert</w>
Co well</w>
Co lin</w>
Co hen</w>
Cir cle</w>
Che ers</w>
Cha ins</w>
Ch ester</w>
Cas ino</w>
Cas ablan
Car rey</w>
Cal led</w>
Ca stle</w>
Ca se</w>
CONT ROL</w>
CON CER
COMP LI
COMP ANY</w>
COMM IT
COM ING</w>
COM FORTABLE</w>
CO LE</w>
CLA SS</w>
CH UCK</w>
CER TA
C ant</w>
C and
C RI
C NN</w>
C ER</w>
Bur ning</w>
Buck ley</w>
Bu ck</w>
Brea king</w>
Brand on</w>
Bra in</w>
Boy friend</w>
Bon o</w>
Bon nie</w>
Bo at</w>
Bli ss</w>
Bel ow</w>
Be st
Be et
Bau er</w>
Bas ket</w>
BU N
BOY Z</w>
BLON DE</w>
BIT CH</w>
BEA CH</w>
BE EP</w>
BA SI
B right</w>
B our
B orn</w>
B ed</w>
B ands</w>
B RU
B LOO
B AL
B ACK
Austr alian</w>
As sa
Apologi es</w>
Andre ws</w>
Andre w</w>
An t</w>
An ger</w>
Al i</w>
Al an</w>
Afri can
Ac tions</w>
ATTEN TION</w>
ANI C</w>
AN GE
ADV ISE</w>
AB OVE</w>
A yla</w>
A tre
A int</w>
A gain
A LI
= P</w>
:00 pm</w>
99 .
9. 99</w>
8 2</w>
8 1</w>
6 .</w>
5. 5</w>
3 7</w>
3 5
2- 3</w>
2 Pac</w>
2 8
19 60</w>
12 3</w>
1 ,000</w>
0 4</w>
0 2</w>
.. now</w>
.. in</w>
. we</w>
. like</w>
. in</w>
. What</w>
. If</w>
. He</w>
- minded</w>
- looking</w>
- a-
' What</w>
zz z</w>
z art</w>
z ach</w>
yy yy</w>
yu o</w>
your 'e</w>
yl len
yi p</w>
yahoo .com.
ya ho
y ton</w>
y ster</w>
y mour</w>
y O
x ter</w>
x oph
xoph one</w>
x mas</w>
x m</w>
www. ebay.com</w>
ww .
would 'nt</w>
worl d.com</w>
wom an
wic ke
wic hes</w>
wi zard</w>
wi se
what cha</w>
wh il
well ..</w>
wel ling</w>
wee zer</w>
wee ty</w>
we ve</w>
we gian</w>
war ned</w>
war ez</w>
wan der</w>
wal ker</w>
wa shington</w>
wa ddy</w>
w y
w r</w>
w old</w>
w man</w>
w if</w>
volun teer</w>
vol ley
volley ball</w>
viol et</w>
vint age</w>
video. google.com</w>
vic e-
vi sually</w>
vi sual</w>
vi c</w>
vi agra</w>
ver i
ver bal</w>
ver b
ver .com</w>
vel ing</w>
v ich</w>
v es
us sie</w>
ur al</w>
up to</w>
up stairs</w>
up ..</w>
unsa vory</w>
uni versal</w>
un trustworthy</w>
un true</w>
un it</w>
un interesting</w>
un interested</w>
un dress</w>
un doub
un contro
uncontro ll
um mmmm</w>
ub bies</w>
u tr
u hm</w>
ty ler</w>
tw in
tu re
tu m</w>
tt les</w>
tro y</w>
tro ll</w>
tri pped</w>
tri mmed</w>
tri logy</w>
tremend ously</w>
trav els</w>
trav eled</w>
trans late</w>
tran spor
tran sit
trage dies</w>
trad ing</w>
to do</w>
tis dale</w>
tion ist</w>
tick le</w>
ti est</w>
ti dy</w>
thri ft</w>
thn x</w>
think ..</w>
theat res</w>
th ur
th omas</w>
th ick
th and</w>
th /
tex ts</w>
ter ia</w>
ten s</w>
ten ing</w>
temp t</w>
tel e</w>
teen th</w>
tat oo</w>
tal i
tab oo</w>
ta xes</w>
ta ped</w>
t x
t up
t ummy</w>
t um
t less</w>
t ched</w>
sy mp
survi vor</w>
survi ved</w>
sur round
surround ings</w>
super market</w>
sun glasses</w>
sub stances</w>
sub stan
sub mis
submis sive</w>
su mmed</w>
su it
su icidal</w>
su ction</w>
stu f</w>
stru ggle</w>
stro kes</w>
stri ve</w>
stri ps</w>
stre aming</w>
straw berries</w>
str at</w>
sti l</w>
ster ed</w>
ste el</w>
stan i</w>
stab bing</w>
sta ind</w>
sta .com</w>
st ler</w>
st ing
st ephen</w>
st -
spon taneous</w>
spon sor</w>
spir it
sp li
son y</w>
some place</w>
soli d</w>
so em
so ap
sm s</w>
sm elling</w>
sl *t</w>
ske et</w>
sit coms</w>
singing fish
singingfish .com</w>
sigh *</w>
shu ld</w>
shu ffle</w>
sho ve</w>
shi a</w>
she ep
sh oud</w>
sh ly</w>
sex ist</w>
ser a</w>
sensi cal</w>
sen sa
sel dom</w>
se ki</w>
scri pts</w>
scre ws</w>
sci ento
sci -fi</w>
schedu led</w>
sc um</w>
sc ales</w>
sat anic</w>
sar ah</w>
samp les</w>
sa xophone</w>
sa f
saf ely</w>
sa dness</w>
s ville</w>
s no</w>
s lin
s ith</w>
ru k
ruk h</w>
roll er
ro ller</w>
ro bin</w>
right ..</w>
ric o</w>
ri son
ri ses</w>
ri gged</w>
ri dge</w>
ri can</w>
reve aling</w>
responsi bilities</w>
resc ue</w>
repa ired</w>
ren der</w>
relin qu
relinqu ish</w>
reit erate</w>
regre tted</w>
refre shing</w>
recomm ending</w>
real a
real -
read ers</w>
re tali
re sted</w>
re sp
re o
re marks</w>
re makes</w>
re all
rac tice</w>
ra ve</w>
ra p
ra ising</w>
ra i</w>
ra dio
ra di
r omeo</w>
r ly</w>
r ats</w>
r ates</w>
qu eries</w>
qu ant
puzz led</w>
pun k
pub lic
pu dding</w>
pu bic</w>
provi der</w>
proper ty</w>
promo tion</w>
pro ven</w>
pro cra
procra stin
pri o</w>
pri ate</w>
pres sing</w>
pres ent
present able</w>
prepar ing</w>
prac tical</w>
pr one</w>
pr ints</w>
ppe dy</w>
pp les</w>
posteri ors</w>
posses sed</w>
pop -
po ke</w>
pi pe</w>
pi ons</w>
physi que</w>
phi loso
per ed</w>
pe ed</w>
pe che</w>
pati ently</w>
parti ci
partici pants</w>
par don</w>
par ade</w>
pack ages</w>
pa use</w>
pa per
pa p
pa iring</w>
p. m</w>
p tly</w>
p ru
p its</w>
p acks</w>
p acking</w>
p ..</w>
over seas</w>
over dose</w>
out u
out right</w>
out look</w>
ou ble</w>
ort on</w>
oro thy</w>
opti mal</w>
onk adonk</w>
ona than</w>
on ne</w>
on i
omp son</w>
om ni
om i</w>
old. ~</w>
ol d
offic ers</w>
occur ring</w>
obe y</w>
ob serving</w>
o perate</w>
o pe
o logy</w>
o livia</w>
o ct
o ..</w>
notic eable</w>
nor m</w>
non sensical</w>
non na</w>
no t..</w>
no min
nin ja</w>
nific ent</w>
ni ps</w>
ni est</w>
newsp a
net /
net .com</w>
neigh b
nat ch</w>
napo leon</w>
na p</w>
n vr</w>
n ing
n al
my self
musici ans
musicians friend.com</w>
music .
mur ray</w>
mu se
mu mmy</w>
mu lation</w>
mu ffin</w>
mr .
mp t</w>
movi e
mor rison</w>
mon itor</w>
model ing</w>
mo graphy</w>
mo di
minino va.org</w>
mi ster</w>
metaph or</w>
mes ses</w>
mes h</w>
mer ry</w>
men ted</w>
men tal
men stru
me w</w>
me tho
me ful</w>
matu rely</w>
material istic</w>
marke ting</w>
mar r
mar ching</w>
man aged</w>
mal ls</w>
mage dd
mag gie</w>
mab ye</w>
ma ssive</w>
ma be</w>
m mes</w>
m bers</w>
lyric s
ly ..</w>
lull aby</w>
long- term</w>
loc ally</w>
lo cks</w>
ll i</w>
livin life
lip ino</w>
lin er</w>
lin a</w>
lik able</w>
ligh ten</w>
lic s</w>
li tt
less er</w>
les h</w>
leg ged</w>
lear nt</w>
lea f</w>
le z
le ton</w>
le ans</w>
layou ts</w>
lat or</w>
lat ex</w>
lag una</w>
la sh</w>
la me
la ge</w>
l oun
l end</w>
ko ta</w>
kil l
ke wl</w>
kaz aa.com</w>
ka k</w>
k yle</w>
k ri
k ra
k on
k el</w>
k ab
jun kie</w>
jun k.com</w>
ju st
ju ices</w>
ju dice</w>
jo y
jo l</w>
je wl
jam in</w>
j en</w>
j .
it ly</w>
it ..but</w>
invest ed</w>
intre sted</w>
inter sted</w>
inter s</w>
intellig ently</w>
instru cted</w>
inst ein</w>
inse curity</w>
ink le</w>
infor ms</w>
industri es</w>
indul ge</w>
indiscre tions</w>
ind ship</w>
in surance</w>
in sti
in spires</w>
in spir
in ly</w>
in her
in hal
in case</w>
impro ving</w>
impro vement</w>
imper ative</w>
imp ort</w>
imber lake</w>
imbec ile</w>
ill -
il t</w>
identi fied</w>
ic on</w>
ic as</w>
i k</w>
i der</w>
hun ter</w>
hu mping</w>
hor rid</w>
hor ney</w>
hoo m</w>
home wre
home coming</w>
hom eless</w>
ho ho
hipp o</w>
hilar i
hi red</w>
hi ll
hero ine</w>
herit age</w>
her e..</w>
hen drix</w>
heart ache</w>
har med</w>
hand ful</w>
half .com</w>
hair style</w>
hahahaha hahahaha
ha un
ha r</w>
ha h</w>
h v</w>
h rukh</w>
guy /
gu tter</w>
gri llz</w>
gre ats</w>
gre ase</w>
gra mmer</w>
gr ant</w>
gom ery</w>
godd amn</w>
go ts</w>
gn ant</w>
girl z</w>
gh ter</w>
gh e
ger ms</w>
ger man</w>
gener ous</w>
ge ta
ge stures</w>
gam ble</w>
g ory</w>
g n</w>
g it</w>
fun c
fu cker</w>
fru its</w>
fri ckin</w>
free zing</w>
frea k
franchi se</w>
fran kie</w>
for getting</w>
for gets</w>
for cing</w>
for ces</w>
for bidden</w>
foo l
fo ster</w>
fla unt</w>
fla shy</w>
fir stly</w>
fin der.com</w>
fil ter</w>
fic tional</w>
fi xing</w>
fi x
fi shy</w>
fi ddle</w>
fer ret</w>
fer ent</w>
feed back</w>
fe iffer</w>
fe b</w>
fashi on
fascin ated</w>
far ts</w>
fac ed</w>
fa x</w>
fa ther
fa ked</w>
f ying</w>
f oul</w>
f .</w>
exten sive</w>
expres ses</w>
expi red</w>
exha usted</w>
excla im</w>
exam ined</w>
ex tend</w>
ex posed</w>
ex pose</w>
ex ept</w>
ex changing</w>
ex am</w>
ex ag
ex ac
ever al</w>
ev ens</w>
etc .</w>
et ubbies</w>
et a</w>
essi ons</w>
es ..
ern ity</w>
equi pment</w>
epi c</w>
ephan ts</w>
enti al</w>
enthusias tic</w>
enthusias m</w>
ent ric</w>
ent age</w>
engra ved</w>
eng ine
eng ed</w>
en ity</w>
en ey</w>
en dless</w>
ell en</w>
elect ric
el mo</w>
el li
el er</w>
el ephants</w>
ei w</w>
ego s</w>
ed less</w>
e-ma ils</w>
e u
e no
e cc
dur ation</w>
dur an</w>
duc ed</w>
drool ing</w>
dro wning</w>
dri vers</w>
dre w</w>
dre ns</w>
dr ank</w>
don ´t</w>
don ot</w>
does 'nt</w>
do ggy</w>
do gg</w>
disp layed</w>
discour aged</w>
disagre ement</w>
dis gust</w>
din ing</w>
dil emma</w>
dia pers</w>
di stin
di gnity</w>
di ego</w>
di e.com</w>
dge ball</w>
develop ing</w>
dev or
destru ction</w>
deser t</w>
descri bes</w>
des c
dergar ten</w>
der as</w>
den ying</w>
del ay</w>
dee pest</w>
dec eived</w>
deal ers</w>
de part</w>
de odor
de grassi</w>
de feat</w>
dar ker</w>
dar k
damag ed</w>
d- fearing</w>
d yed</w>
d fire</w>
d ate
d andy</w>
d add
cup cakes</w>
cul t</w>
cu red</w>
cu it</w>
cry stal</w>
crow ded</w>
crimin als</w>
cri be</w>
cre ates</w>
craigslist .com</w>
cra zed</w>
cra wl</w>
cor ners</w>
cor k</w>
convinc ing</w>
conv o</w>
contr ary</w>
conte sts</w>
cont acting</w>
cont acted</w>
consu mes</w>
consequ ence</w>
confu sion</w>
compli cations</w>
comple x
comp elled</w>
communic ated</w>
comfor ting</w>
come 'on</w>
colle ctor</w>
colle cting</w>
col oring</w>
col labor
cocon uts</w>
co pe</w>
clo thed</w>
clo ppedy</w>
cle f</w>
clar k</w>
circum c
circumc ised</w>
ci dentally</w>
chu ckle</w>
chil drens</w>
chi r
char t</w>
char lie</w>
char is
ch unk</w>
ch it</w>
cell ane
cellane ous</w>
cee ding</w>
cau ca
carri bean</w>
care ers</w>
car i
car ess</w>
canc el</w>
cal lin</w>
cal culate</w>
ca ve
ca v
c ture</w>
c ler
c i</w>
c ells</w>
c ello</w>
butth ole</w>
bu ns</w>
bu ffy</w>
bro w</w>
bro ther
brief ly</w>
bri efs</w>
br un
br it</w>
boy co
boo t
boo king</w>
bol ly
bo sses</w>
bla ming</w>
bl acks</w>
bit comet</w>
bio logical</w>
bin go</w>
bi polar</w>
bi m
bi eng</w>
bel ls</w>
behavi our</w>
be u
be tra
be ck
be careful</w>
be aters</w>
be aten</w>
bath tub</w>
basi cs</w>
bar ney</w>
bar a</w>
ballo ons</w>
bal lad</w>
bad ass</w>
back yard</w>
baby sitting</w>
ba ked</w>
ba k</w>
ba h</w>
b bed</w>
b ating</w>
b als</w>
b ****</w>
az ure
awes ome
aw ar
aw a</w>
auth ority</w>
austr alia</w>
au g
au ction</w>
attr acting</w>
atten tive</w>
attach ment</w>
att at
at us</w>
at -
askje eves.com</w>
as p
as certain</w>
as *</w>
arti st
armp its</w>
ar rest</w>
ar ranged</w>
ar ran
ar mstrong</w>
appropri ately</w>
appro val</w>
appe als</w>
app re
any thing
anw ser</w>
anticip ating</w>
ant on
answer er</w>
ani me.com</w>
ani me
ang ed</w>
and .com</w>
an xi
an tee</w>
an ky</w>
an derson</w>
amp le</w>
am ir</w>
am anda</w>
alterna tively</w>
all ..</w>
albu m
al lot</w>
al le
al ice</w>
al e
al a
al ..</w>
ais le</w>
ag grav
ag en
af t</w>
adverti sements</w>
ado pted</w>
adm its</w>
ace ful</w>
ac knowledge</w>
ac i
absor bed</w>
a to</w>
a st
a ero
a ar
Zo diac</w>
Z oo</w>
Z ack</w>
Yu-Gi -Oh</w>
Ya maha</w>
YA H</w>
Y outu
Y outh</w>
Y ourself</w>
Y or
Y .
X- Files</w>
X I</w>
Wy nonna</w>
Win nie</w>
Wil lis</w>
Wil dfire</w>
Wi zard</w>
Wee k
Wal king</w>
Wa its</w>
WW WW</w>
WOR SE</w>
WOR DS</w>
WI VES</w>
WATCH ING</w>
WATCH ED</w>
WA TER</w>
WA KE</w>
W ord</w>
W hole</w>
Vel vet</w>
Vel ma</w>
Van illa</w>
VIDE O</w>
V aughn</w>
V ai</w>
V a
V Y</w>
Under stand</w>
Ul ti
USU ALLY</w>
UN K</w>
Twi sta</w>
Tru thfully</w>
Tra ding</w>
Tr ouble</w>
To ad</w>
Ti ffany</w>
Th u
Th in</w>
Technic ally</w>
Tar zan</w>
TT E</w>
TRU TH</w>
TR A</w>
TI E</w>
THAN KS</w>
TH IN</w>
T uck</w>
T opher</w>
T is
T imberlake</w>
T ill</w>
T ex
T an
T ales</w>
T aco</w>
T X</w>
T IN</w>
Swee ty</w>
Suppo sedly</w>
Supp ly</w>
Sun rise</w>
Su sie</w>
Stu art</w>
Str angers</w>
Sta irway</w>
Sta ind</w>
St ro
Squ irrel</w>
Spea king</w>
Spe ed</w>
Spe ed
Sp it</w>
Sour ce</w>
Sou thern</w>
Sopran os</w>
Sol dier</w>
So ci
Sin cer
Sel ena</w>
Se same</w>
Sci ento
San dra</w>
Sad ly</w>
SU N</w>
STAN DING</w>
ST LY</w>
ST ING</w>
SPECI ALLY</w>
SP IR
SP END</w>
SP ELL</w>
SP ACE</w>
SO S</w>
SEA SON</w>
SCOR PI
SC REA
S.O. A.
S tal
S miths</w>
S kin
S illy</w>
S hell</w>
S everal</w>
S ense</w>
S elect</w>
S chwar
S as
S MS</w>
S IN</w>
S D</w>
Ru le</w>
Rock o</w>
Ro wling</w>
Ren o</w>
Ren ee</w>
Regga e</w>
Rea son</w>
Re main</w>
Re ject</w>
Ras mus</w>
Rapp er</w>
Ram m
RU LES</w>
RU LE</w>
ROM ANCE</w>
RO SE</w>
RI D</w>
RELATION SHI
RECOR D</w>
REA LITY</w>
RE SPON
RA ID</w>
R urouni</w>
R ho
R est
R em
R am</w>
Que ens</w>
QUE EN</w>
QU E</w>
Pump kins</w>
Prob lem</w>
Por ti
Pi gs</w>
Photo graph</w>
PRO DU
PRE F
PP ING</w>
PP ED</w>
POR N</w>
PO TTER</w>
PLA YING</w>
PL ES</w>
PI SO
PERSON AL</w>
P.O. D</w>
P. O</w>
P ractice</w>
P ort
P amela</w>
P Y</w>
P INK</w>
P A</w>
Or leans</w>
On line</w>
Off er</w>
Oc ca
OR DER</w>
O wen</w>
O mar</w>
O FF
O D</w>
No tice</w>
No kia</w>
Nick leback</w>
Nic hole</w>
New man</w>
Ne edless</w>
Na shville</w>
NA TURE</w>
N on
N early</w>
N AR
Musli m</w>
Mu le</w>
Mo dern</w>
Mo del</w>
Mo b</w>
Mil k</w>
Mid night</w>
Micha els</w>
Mel anie</w>
Mean while</w>
Mau l</w>
Mari o</w>
Mar oon</w>
Man ners</w>
Mal msteen</w>
Ma sturb
Ma id</w>
Ma de</w>
MIN EM</w>
MI STA
MI LLI
MI KE</w>
ME TAL</w>
ME DI
ME AN
M*A*S* H</w>
M s</w>
M itch
M eg
M ed
M OUS</w>
M OO
M MY</w>
M I</w>
M ER
Luck ily</w>
Lo vers</w>
Lo vely</w>
Lo L</w>
Lin da</w>
Light ning</w>
Life house</w>
Lev el</w>
Lem on</w>
Le wis</w>
Le os</w>
LOV E
LO L
LI VING</w>
LI ES</w>
LE Y</w>
L. A</w>
L ite</w>
L enny</w>
L ay</w>
L av
L UST</w>
L OU
Kis sing</w>
Kin nik</w>
Kenne dys</w>
Kar aoke</w>
KEL LY</w>
K yo</w>
K y
K r
K im
K ane</w>
Jud ds</w>
Ju dy</w>
Jo die</w>
Jo Jo</w>
Jee z</w>
Jack ass</w>
JESSI CA</w>
JER RY</w>
J us
J ed
J ar</w>
J agged</w>
J UNE</w>
J ONES</w>
Indi ans</w>
Il linois</w>
Ig nor
IT ION</w>
IS SU
IN U
ID K</w>
I ves</w>
I LL</w>
I DO
I .</w>
Hy de</w>
Hu dson</w>
Hor se</w>
Ho tel</w>
Hen tai</w>
Hea d
Har old</w>
Ha il</w>
HUR TS</w>
HER SELF</w>
H.I. M</w>
H ush</w>
H un</w>
H ire</w>
H ence</w>
H and
H IT</w>
Gri m</w>
Gri llz</w>
Gra mmy</w>
Gr ind</w>
Gr ateful</w>
Gr ant</w>
Gor illaz</w>
Gol die</w>
Go thic</w>
Go d-fearing</w>
Gee k</w>
Ge es</w>
GI VING</w>
G run
G im
G UR
G ING</w>
G ERS</w>
G B</w>
G B
Fro u</w>
Fro g</w>
Frea k</w>
Franchi se</w>
Fr ay</w>
Favor ites</w>
Fat boy</w>
Farre ll</w>
FU LLY</w>
FE ET</w>
F u</w>
F ound</w>
F ly
F ate</w>
F LA
F L
Exor cism</w>
Ex peri
Euro trip</w>
Emp ire</w>
El se</w>
Eigh teen</w>
East wood</w>
EXPERI ENCE</w>
EN S</w>
ED IT</w>
EAR TH</w>
EA CHO
E w</w>
E u
E gy
E SPECIALLY</w>
E PISO
E MINEM</w>
Dun no</w>
Du kes</w>
Dragon ball</w>
Drac ula</w>
Don nie</w>
Don na</w>
Do ll</w>
Di xie</w>
Der ek</w>
Den zel</w>
De mocr
Dar n</w>
Dani els</w>
Da isy</w>
DRU GS</w>
DO M</w>
DIFFI CULT</w>
DE ST</w>
DE P
D orothy</w>
D j</w>
D ill
D at</w>
D MC</w>
D I</w>
Cro we</w>
Cre w</w>
Cour tney</w>
Coo kie</w>
Con ver
Con nery</w>
Con cer
Co yote</w>
Co tton</w>
Co ke</w>
Cla ssi
Chapp elle</w>
Cha ka</w>
Ch u
Ch eat</w>
Car ri
Cal ling</w>
CU T</w>
COMPLE TELY</w>
COM E
CO Z</w>
CHI CK</w>
CE P
CE LE
CAR D</w>
CAL LING</w>
CA SE</w>
C e
C ENT</w>
Bur ns</w>
Bu tt</w>
Bu dd
Bro w
Brea the</w>
Bra zil</w>
Bo zo</w>
Bo wwow</w>
Bo he
Bloo d
Blon die</w>
Bla ine</w>
Bl vd</w>
Bir th</w>
Bi anca</w>
Ben ji</w>
Be ck</w>
Bar nes</w>
Ban ana</w>
Bam bi</w>
Bal lad</w>
Ba sic</w>
BR IT
BIG GEST</w>
BEA T
BE SIDES</w>
BAN DS</w>
BA R</w>
B.I. G</w>
B ynes</w>
B ru
B low</w>
B lin
B j
B attle</w>
B ail
B LO
B LI
B IT</w>
B ER
B AM</w>
B 4</w>
Attrac tive</w>
Atre yu</w>
Ash anti</w>
Ari zona</w>
Ar magedd
Ani mals</w>
An ne</w>
An gus</w>
An gie</w>
Al chemist</w>
Air plane</w>
Again st</w>
Ad kins</w>
AS H</w>
ANG EL
AN GE</w>
AN A</w>
AL L
AF RAID</w>
ACT OR</w>
AC H</w>
ABSOLU TELY</w>
A vi
A ve
A stro
A ss</w>
A ppe
A ctor</w>
A bo
A J</w>
= p</w>
9 x
9 8.
9 2
9 15
8 88</w>
8 7
7 4
6 7</w>
500 ,000</w>
50 /
50/ 50</w>
5' 6</w>
40 -
4 get</w>
30 9</w>
30 -
3 1
24 th</w>
200 8</w>
20 -
2. 5</w>
2 9
2 ,
199 7</w>
199 2</w>
196 9</w>
196 7</w>
196 4</w>
196 3</w>
19 th</w>
10 pm</w>
1. 99</w>
1 7th</w>
0 7</w>
/ /
.. well</w>
.. there</w>
.. maybe</w>
.. good</w>
.. get</w>
. go</w>
. because</w>
. You</w>
. NO</w>
. BUT</w>
. 3</w>
- p</w>
- out</w>
- like</w>
- P</w>
- A-
* sigh*</w>
' n'
' l</w>
' in</w>
' You</w>
' N</w>
' -
zzzz zzzz
zz ard</w>
z on</w>
z ombies</w>
z ine</w>
z ..</w>
yy y</w>
you d</w>
yo ns</w>
yo ga</w>
yn ard</w>
ya z</w>
y um</w>
y t</w>
y ar
www.im esh.com</w>
www. the
www. indi
www. go
www. download
www. coolgoose.com</w>
www. ask.com</w>
work place</w>
wink *</w>
wikipe dia.com</w>
wi mps</w>
who le
wh ith</w>
wh it</w>
wh iny</w>
wh in
wh ere
weigh ed</w>
wei ghts</w>
wed nesday</w>
web cams</w>
we st
we .com</w>
wat ever</w>
war dly</w>
wal- mart</w>
wal lace</w>
wa shes</w>
wa kes</w>
wa il</w>
wa i
w/ out</w>
w we.com</w>
w oul</w>
w oud</w>
w ol
w ll</w>
w k</w>
w entz</w>
w els</w>
w eary</w>
w ear
voca bu
vocabu lary</w>
video tape</w>
verb ally</w>
ver ty</w>
ver son</w>
ver ses</w>
vent ing</w>
ven ly</w>
vel vet</w>
ve in</w>
ve ge
vag inas</w>
vac ilar</w>
vac aine</w>
v ow</w>
v ital</w>
v ester</w>
v ary</w>
v ar
urin ated</w>
ur o</w>
up town</w>
up tight</w>
up ..
uni versity</w>
une th
uneth ical</w>
undoub tedly</w>
un willing</w>
un rated</w>
un predictable</w>
um bo</w>
u sting</w>
u ed</w>
turn -
tum n</w>
tu ck</w>
tter ed</w>
tt y
tt tt
tt able</w>
tru mp
trump et</w>
trou bled</w>
tri ck
tre es</w>
trav is</w>
trail ers</w>
traff icking</w>
tr y
tr ous
tr om
trom bone</w>
tou gher</w>
torren ts</w>
tooth paste</w>
ton ous</w>
tom my</w>
tom ato</w>
toge ther
to by</w>
to ..</w>
tit ties</w>
tis yahu</w>
tis sue</w>
ti stic</w>
ti de</w>
ti ble</w>
thum bs</w>
thirty- three</w>
the ws</w>
thar ine</w>
th ug
th ts</w>
th r</w>
th ouse</w>
th eless</w>
tes y</w>
ten ed</w>
ten dencies</w>
tele caster</w>
techno logy</w>
tea m
te aches</w>
tan go</w>
ta mil</w>
t- shirts</w>
t use</w>
t sie</w>
t r</w>
swee ter</w>
swe ats</w>
swe at
sw i
susp ic
surroun ding</w>
suppor ting</w>
supp lies</w>
supervi sor</w>
suit case</w>
suc ess
sub way</w>
sub titles</w>
sty lish</w>
stupi dity</w>
stu d</w>
stri pes</w>
stri king</w>
stra it</w>
stor yline</w>
sto re
sti ff</w>
stero ids</w>
star ved</w>
sta tisti
sta tic</w>
st unk</w>
st ung</w>
st h</w>
st evie</w>
st even</w>
st en
st eam</w>
squ ar
spor ting</w>
spo t.com</w>
spirit ual</w>
spi ke</w>
spee ch
spe ctor</w>
spar ks</w>
spar k</w>
spac e.
sour i</w>
sor s</w>
soooooooo o</w>
son ic</w>
some things</w>
some h
sol diers</w>
sof ter</w>
sof a</w>
so phi
so ck</w>
snor t</w>
snea king</w>
sm elled</w>
sm ate</w>
slo ppy</w>
sli p</w>
sli ght</w>
sli ce</w>
sle f</w>
sle epy</w>
sl acks</w>
skate boarding</w>
sk unk</w>
sk ittles</w>
sk ank</w>
sin ner</w>
sin gin</w>
sin ful</w>
sick ness</w>
si p</w>
shou ting</w>
shou dl</w>
short -
shi z
shi er</w>
she esh</w>
she er</w>
she `s</w>
sha ven</w>
sha kin</w>
sha k
sh ld</w>
sh ining</w>
sett led</w>
ses sment</w>
seri ousness</w>
sent enced</w>
sen tial</w>
sen sible</w>
sel s</w>
seem ingly</w>
seduc tive</w>
se ph</w>
se mi
semi -
scre amo</w>
sco ttish</w>
sc aring</w>
saw yer</w>
santab an
santaban ta.com</w>
sand ler</w>
san it
sanit ary</w>
sali va</w>
sales man</w>
sac red</w>
sa ti
sa ssy</w>
sa mur
samur ai</w>
sa man
saman tha</w>
sa i
sa fer</w>
sa dd
s tion</w>
s se
s killet</w>
s b
rock star</w>
rober ts</w>
ro se
ro lls</w>
rif le</w>
ri cal</w>
ri al</w>
retali ate</w>
resc ued</w>
requi re
require ments</w>
repul sive</w>
repor ts</w>
ren t.com</w>
reha b</w>
refle x</w>
refer ences</w>
recomm endation</w>
recep tive</w>
reas ure</w>
reali zes</w>
reali zation</w>
reala tionship</w>
real ly
rea me</w>
rea k</w>
re tire</w>
re think</w>
re son</w>
re sides</w>
re pri
re presen
re plac
re mor
re mber</w>
re marry</w>
re lev
re di
redi culous</w>
re acting</w>
ra is
ra d
r or
quar ter
qu et</w>
qu al
pupp et</w>
pup pets</w>
pul p</w>
provoca tive</w>
prote cting</w>
prom in
proc ed
proced ure</w>
pro ving</w>
pro test</w>
pro tag
pro phe
pro fan
prev ents</w>
preten tious</w>
pres suring</w>
pre order</w>
pre ety</w>
pre ach</w>
pra ise</w>
pr on</w>
posse ssive</w>
port able</w>
por ts</w>
por n
pol lution</w>
pol ka</w>
po ts</w>
po sure</w>
po suction</w>
po ly
po ll</w>
po key</w>
po kes</w>
po is
plo y</w>
plea d</w>
play boy</w>
pin ea
pinea pples</w>
pimp in</w>
pick ler</w>
pi pes</w>
pi g
ph sy
ph ro
ph ony</w>
ph on
ph in</w>
ph al
phal lus</w>
peri shed</w>
perc entage</w>
per severe</w>
per mis
pen ters</w>
pe p
pe dal</w>
pe ach</w>
par lor</w>
par ental</w>
pap i</w>
pan ty</w>
pan ther</w>
pan da</w>
pa ja
paja mas</w>
pa int
p u</w>
p tions</w>
p quest</w>
p omp
pomp ous</w>
p l</w>
p ine</w>
p ear</w>
p atri
p ale</w>
p ad
oxy moron</w>
over protective</w>
over priced</w>
over night</w>
ound s.com</w>
oun ces</w>
os lyrics.com</w>
or ..</w>
oper ating</w>
oper as</w>
open ly</w>
on ions</w>
on ion</w>
on i</w>
on going</w>
on ging</w>
on ..
ol dest</w>
odd ly</w>
ob tuse</w>
ob servation</w>
ob li
o z</w>
o ts</w>
o on
o las</w>
o i</w>
o hhh</w>
o gatory</w>
ny mp
no te
no m</w>
night ley</w>
nickel back</w>
newspa pers</w>
new ly</w>
never mind</w>
nerv ouse</w>
ne utr
ne ts</w>
ne se</w>
nat ured</w>
nap ster</w>
n up
n g
n ds</w>
n bc</w>
n ay</w>
n ally</w>
n ad</w>
n `t</w>
mut ually</w>
mut ant</w>
musi cal
multi ply</w>
muff ins</w>
mu m
mother -in-law</w>
mosqu ito</w>
mort al</w>
mor row</w>
mono tonous</w>
moni ker</w>
mon sters</w>
moder ately</w>
mo w</w>
mo sphere</w>
mo o</w>
mo i
mo fo</w>
mo de</w>
mm m
mm ate</w>
mis understood</w>
mis sissippi</w>
min gle</w>
mid gets</w>
mic ro</w>
mi en</w>
messa ging</w>
menstru al</w>
men tions</w>
[...]
